{
  "version": "1.0",
  "truncation": null,
  "padding": null,
  "added_tokens": [],
  "normalizer": {
    "type": "Sequence",
    "normalizers": [
      {
        "type": "NFKC"
      },
      {
        "type": "Lowercase"
      },
      {
        "type": "Replace",
        "pattern": {
          "String": "<br />"
        },
        "content": " "
      }
    ]
  },
  "pre_tokenizer": {
    "type": "ByteLevel",
    "add_prefix_space": false,
    "trim_offsets": true,
    "use_regex": true
  },
  "post_processor": {
    "type": "ByteLevel",
    "add_prefix_space": true,
    "trim_offsets": false,
    "use_regex": true
  },
  "decoder": {
    "type": "ByteLevel",
    "add_prefix_space": true,
    "trim_offsets": true,
    "use_regex": true
  },
  "model": {
    "type": "BPE",
    "dropout": null,
    "unk_token": null,
    "continuing_subword_prefix": null,
    "end_of_word_suffix": null,
    "fuse_unk": false,
    "byte_fallback": false,
    "ignore_merges": false,
    "vocab": {
      "!": 0,
      "\"": 1,
      "#": 2,
      "$": 3,
      "%": 4,
      "&": 5,
      "'": 6,
      "(": 7,
      ")": 8,
      "*": 9,
      "+": 10,
      ",": 11,
      "-": 12,
      ".": 13,
      "/": 14,
      "0": 15,
      "1": 16,
      "2": 17,
      "3": 18,
      "4": 19,
      "5": 20,
      "6": 21,
      "7": 22,
      "8": 23,
      "9": 24,
      ":": 25,
      ";": 26,
      "<": 27,
      "=": 28,
      ">": 29,
      "?": 30,
      "@": 31,
      "A": 32,
      "B": 33,
      "C": 34,
      "D": 35,
      "E": 36,
      "F": 37,
      "G": 38,
      "H": 39,
      "I": 40,
      "J": 41,
      "K": 42,
      "L": 43,
      "M": 44,
      "N": 45,
      "O": 46,
      "P": 47,
      "Q": 48,
      "R": 49,
      "S": 50,
      "T": 51,
      "U": 52,
      "V": 53,
      "W": 54,
      "X": 55,
      "Y": 56,
      "Z": 57,
      "[": 58,
      "\\": 59,
      "]": 60,
      "^": 61,
      "_": 62,
      "`": 63,
      "a": 64,
      "b": 65,
      "c": 66,
      "d": 67,
      "e": 68,
      "f": 69,
      "g": 70,
      "h": 71,
      "i": 72,
      "j": 73,
      "k": 74,
      "l": 75,
      "m": 76,
      "n": 77,
      "o": 78,
      "p": 79,
      "q": 80,
      "r": 81,
      "s": 82,
      "t": 83,
      "u": 84,
      "v": 85,
      "w": 86,
      "x": 87,
      "y": 88,
      "z": 89,
      "{": 90,
      "|": 91,
      "}": 92,
      "~": 93,
      "¡": 94,
      "¢": 95,
      "£": 96,
      "¤": 97,
      "¥": 98,
      "¦": 99,
      "§": 100,
      "¨": 101,
      "©": 102,
      "ª": 103,
      "«": 104,
      "¬": 105,
      "®": 106,
      "¯": 107,
      "°": 108,
      "±": 109,
      "²": 110,
      "³": 111,
      "´": 112,
      "µ": 113,
      "¶": 114,
      "·": 115,
      "¸": 116,
      "¹": 117,
      "º": 118,
      "»": 119,
      "¼": 120,
      "½": 121,
      "¾": 122,
      "¿": 123,
      "À": 124,
      "Á": 125,
      "Â": 126,
      "Ã": 127,
      "Ä": 128,
      "Å": 129,
      "Æ": 130,
      "Ç": 131,
      "È": 132,
      "É": 133,
      "Ê": 134,
      "Ë": 135,
      "Ì": 136,
      "Í": 137,
      "Î": 138,
      "Ï": 139,
      "Ð": 140,
      "Ñ": 141,
      "Ò": 142,
      "Ó": 143,
      "Ô": 144,
      "Õ": 145,
      "Ö": 146,
      "×": 147,
      "Ø": 148,
      "Ù": 149,
      "Ú": 150,
      "Û": 151,
      "Ü": 152,
      "Ý": 153,
      "Þ": 154,
      "ß": 155,
      "à": 156,
      "á": 157,
      "â": 158,
      "ã": 159,
      "ä": 160,
      "å": 161,
      "æ": 162,
      "ç": 163,
      "è": 164,
      "é": 165,
      "ê": 166,
      "ë": 167,
      "ì": 168,
      "í": 169,
      "î": 170,
      "ï": 171,
      "ð": 172,
      "ñ": 173,
      "ò": 174,
      "ó": 175,
      "ô": 176,
      "õ": 177,
      "ö": 178,
      "÷": 179,
      "ø": 180,
      "ù": 181,
      "ú": 182,
      "û": 183,
      "ü": 184,
      "ý": 185,
      "þ": 186,
      "ÿ": 187,
      "Ā": 188,
      "ā": 189,
      "Ă": 190,
      "ă": 191,
      "Ą": 192,
      "ą": 193,
      "Ć": 194,
      "ć": 195,
      "Ĉ": 196,
      "ĉ": 197,
      "Ċ": 198,
      "ċ": 199,
      "Č": 200,
      "č": 201,
      "Ď": 202,
      "ď": 203,
      "Đ": 204,
      "đ": 205,
      "Ē": 206,
      "ē": 207,
      "Ĕ": 208,
      "ĕ": 209,
      "Ė": 210,
      "ė": 211,
      "Ę": 212,
      "ę": 213,
      "Ě": 214,
      "ě": 215,
      "Ĝ": 216,
      "ĝ": 217,
      "Ğ": 218,
      "ğ": 219,
      "Ġ": 220,
      "ġ": 221,
      "Ģ": 222,
      "ģ": 223,
      "Ĥ": 224,
      "ĥ": 225,
      "Ħ": 226,
      "ħ": 227,
      "Ĩ": 228,
      "ĩ": 229,
      "Ī": 230,
      "ī": 231,
      "Ĭ": 232,
      "ĭ": 233,
      "Į": 234,
      "į": 235,
      "İ": 236,
      "ı": 237,
      "Ĳ": 238,
      "ĳ": 239,
      "Ĵ": 240,
      "ĵ": 241,
      "Ķ": 242,
      "ķ": 243,
      "ĸ": 244,
      "Ĺ": 245,
      "ĺ": 246,
      "Ļ": 247,
      "ļ": 248,
      "Ľ": 249,
      "ľ": 250,
      "Ŀ": 251,
      "ŀ": 252,
      "Ł": 253,
      "ł": 254,
      "Ń": 255,
      "Ġt": 256,
      "Ġa": 257,
      "Ġth": 258,
      "in": 259,
      "Ġthe": 260,
      "Ġs": 261,
      "er": 262,
      "Ġw": 263,
      "Ġi": 264,
      "Ġo": 265,
      "re": 266,
      "Ġb": 267,
      "Ġm": 268,
      "Ġh": 269,
      "Ġf": 270,
      "nd": 271,
      "Ġc": 272,
      "at": 273,
      "en": 274,
      "ing": 275,
      "es": 276,
      "or": 277,
      "ou": 278,
      "is": 279,
      "on": 280,
      "Ġd": 281,
      "Ġp": 282,
      "Ġand": 283,
      "ll": 284,
      "Ġto": 285,
      "Ġof": 286,
      "an": 287,
      "ed": 288,
      "ar": 289,
      "Ġl": 290,
      "it": 291,
      "Ġin": 292,
      "as": 293,
      "Ġg": 294,
      "Ġis": 295,
      "om": 296,
      "Ġn": 297,
      "Ġe": 298,
      "Ġit": 299,
      "ic": 300,
      "le": 301,
      "ot": 302,
      "al": 303,
      "ut": 304,
      "Ġbe": 305,
      "ct": 306,
      "Ġwh": 307,
      "il": 308,
      "st": 309,
      "Ġmo": 310,
      "ie": 311,
      "ve": 312,
      "ly": 313,
      "Ġre": 314,
      "Ġon": 315,
      "Ġthat": 316,
      "Ġthis": 317,
      "ver": 318,
      "ow": 319,
      "ent": 320,
      "Ġst": 321,
      "ad": 322,
      "ch": 323,
      "'s": 324,
      "th": 325,
      "ion": 326,
      "ay": 327,
      "Ġy": 328,
      "se": 329,
      "gh": 330,
      "Ġmov": 331,
      "Ġwas": 332,
      "Ġu": 333,
      "Ġr": 334,
      "ith": 335,
      "Ġse": 336,
      "Ġas": 337,
      "Ġan": 338,
      "Ġfor": 339,
      "im": 340,
      "id": 341,
      "ilm": 342,
      "ke": 343,
      "Ġfilm": 344,
      "all": 345,
      "Ġsh": 346,
      "oo": 347,
      "ce": 348,
      "Ġwith": 349,
      "am": 350,
      "ld": 351,
      "Ġyou": 352,
      "Ġj": 353,
      "Ġmovie": 354,
      "Ġhe": 355,
      "ir": 356,
      "et": 357,
      "Ġha": 358,
      "Ġbut": 359,
      "Ġch": 360,
      "ter": 361,
      "ur": 362,
      "Ġli": 363,
      "Ġnot": 364,
      "ill": 365,
      "ome": 366,
      "'t": 367,
      "ally": 368,
      "Ġk": 369,
      "Ġ(": 370,
      "Ġ\"": 371,
      "ers": 372,
      "ro": 373,
      "ck": 374,
      "Ġhis": 375,
      "Ġare": 376,
      "ri": 377,
      "Ġat": 378,
      "ra": 379,
      "Ġsu": 380,
      "..": 381,
      "pe": 382,
      "ere": 383,
      "ould": 384,
      "Ġfr": 385,
      "ul": 386,
      "em": 387,
      "Ġhave": 388,
      "Ġso": 389,
      "Ġsc": 390,
      "ght": 391,
      "ust": 392,
      "est": 393,
      "Ġal": 394,
      "Ġdo": 395,
      "Ġv": 396,
      "un": 397,
      "Ġwe": 398,
      "Ġone": 399,
      "Ġde": 400,
      "Ġact": 401,
      "Ġall": 402,
      "Ġsome": 403,
      "Ġex": 404,
      "Ġma": 405,
      "Ġwho": 406,
      "Ġab": 407,
      "ge": 408,
      "ess": 409,
      "Ġpl": 410,
      "Ġcom": 411,
      "very": 412,
      "ab": 413,
      "out": 414,
      "act": 415,
      "ood": 416,
      "Ġthey": 417,
      "Ġby": 418,
      "ant": 419,
      "Ġne": 420,
      "pp": 421,
      "ol": 422,
      "us": 423,
      "ies": 424,
      "ain": 425,
      "art": 426,
      "Ġwor": 427,
      "Ġher": 428,
      "ous": 429,
      "op": 430,
      "Ġfrom": 431,
      "el": 432,
      "and": 433,
      "Ġlike": 434,
      "one": 435,
      "Ġcon": 436,
      "ist": 437,
      "qu": 438,
      "Ġor": 439,
      "Ġout": 440,
      "ast": 441,
      "ven": 442,
      "Ġthere": 443,
      "ation": 444,
      "Ġdi": 445,
      "Ġme": 446,
      "um": 447,
      "ough": 448,
      "Ġjust": 449,
      "au": 450,
      "ight": 451,
      "Ġun": 452,
      "ate": 453,
      "fe": 454,
      "Ġlo": 455,
      "Ġle": 456,
      "Ġchar": 457,
      "ich": 458,
      "Ġabout": 459,
      "Ġhas": 460,
      "Ġpro": 461,
      "atch": 462,
      "Ġcan": 463,
      "her": 464,
      "ind": 465,
      "res": 466,
      "ard": 467,
      "Ġtim": 468,
      "Ġgo": 469,
      "ory": 470,
      "Ġif": 471,
      "Ġman": 472,
      "ive": 473,
      "ack": 474,
      "Ġwhat": 475,
      "pt": 476,
      "Ġno": 477,
      "ort": 478,
      "Ġany": 479,
      "os": 480,
      "ud": 481,
      "Ġmy": 482,
      "Ġtr": 483,
      "Ġgood": 484,
      "ook": 485,
      "reat": 486,
      "ak": 487,
      "Ġcharact": 488,
      "Ġshe": 489,
      "Ġwatch": 490,
      "Ġup": 491,
      "Ġmore": 492,
      "ther": 493,
      "ong": 494,
      "Ġget": 495,
      "Ġint": 496,
      "Ġwhen": 497,
      "Ġsee": 498,
      "Ġfe": 499,
      "red": 500,
      "Ġvery": 501,
      "ig": 502,
      "Ġwould": 503,
      "ity": 504,
      "Ġen": 505,
      "ound": 506,
      "ff": 507,
      "ame": 508,
      "Ġbec": 509,
      "ite": 510,
      "Ġstory": 511,
      "Ġcl": 512,
      "Ġhow": 513,
      "Ġeven": 514,
      "Ġam": 515,
      "Ġtime": 516,
      "able": 517,
      "Ġ1": 518,
      "Ġ-": 519,
      "Ġper": 520,
      "ag": 521,
      "Ġro": 522,
      "Ġonly": 523,
      "Ġreally": 524,
      "Ġshow": 525,
      "Ġtheir": 526,
      "Ġhad": 527,
      "Ġscen": 528,
      "ious": 529,
      "Ġar": 530,
      "ore": 531,
      "ble": 532,
      "Ġhim": 533,
      "Ġbr": 534,
      "Ġwere": 535,
      "Ġwhich": 536,
      "itt": 537,
      "Ġkn": 538,
      "Ġte": 539,
      "so": 540,
      "pl": 541,
      "ink": 542,
      "Ġthan": 543,
      "oy": 544,
      "Ġdid": 545,
      "Ġpe": 546,
      "ure": 547,
      "are": 548,
      "man": 549,
      "Ġwill": 550,
      "thing": 551,
      "ick": 552,
      "ap": 553,
      "ine": 554,
      "Ġthem": 555,
      "Ġwell": 556,
      "...": 557,
      "ful": 558,
      "Ġim": 559,
      "Ġmu": 560,
      "our": 561,
      "Ġend": 562,
      "ci": 563,
      "Ġdoes": 564,
      "Ġqu": 565,
      "ment": 566,
      "Ġpo": 567,
      "ish": 568,
      "Ġgreat": 569,
      "ars": 570,
      "ays": 571,
      "nder": 572,
      "od": 573,
      "ade": 574,
      "Ġover": 575,
      "Ġbet": 576,
      "ence": 577,
      "Ġbad": 578,
      "ves": 579,
      "Ġother": 580,
      "rect": 581,
      "Ġlook": 582,
      "the": 583,
      "ause": 584,
      "Ġmuch": 585,
      "Ġsp": 586,
      "Ġad": 587,
      "Ġmost": 588,
      "Ġbl": 589,
      "Ġfa": 590,
      "Ġaf": 591,
      "Ġevery": 592,
      "Ġcould": 593,
      "ice": 594,
      "og": 595,
      "Ġtw": 596,
      "Ġpre": 597,
      "Ġus": 598,
      "Ġbeen": 599,
      "ople": 600,
      "ue": 601,
      "irst": 602,
      "Ġdon": 603,
      "ert": 604,
      "Ġdis": 605,
      "Ġpeople": 606,
      "int": 607,
      "ple": 608,
      "Ġthr": 609,
      "Ġinto": 610,
      "ide": 611,
      "for": 612,
      "Ġknow": 613,
      "Ġalso": 614,
      "Ġsa": 615,
      "Ġbecause": 616,
      "Ġthink": 617,
      "ass": 618,
      "Ġtoo": 619,
      "lf": 620,
      "Ġdirect": 621,
      "Ġfirst": 622,
      "Ġjo": 623,
      "Ġag": 624,
      "ry": 625,
      "age": 626,
      "Ġoff": 627,
      "per": 628,
      "Ġpart": 629,
      "nt": 630,
      "Ġreal": 631,
      "Ġco": 632,
      "Ġthing": 633,
      "Ġgu": 634,
      "Ġmake": 635,
      "Ġway": 636,
      "ors": 637,
      "other": 638,
      "ose": 639,
      "Ġits": 640,
      "Ġmade": 641,
      "Ġthen": 642,
      "te": 643,
      "Ġfun": 644,
      "ving": 645,
      "ile": 646,
      "Ġafter": 647,
      "ict": 648,
      "ull": 649,
      "Ġwr": 650,
      "Ġfl": 651,
      "Ġmovies": 652,
      "ces": 653,
      "ty": 654,
      "Ġseem": 655,
      "Ġ'": 656,
      "Ġinter": 657,
      "cc": 658,
      ").": 659,
      "ary": 660,
      "Ġcharacter": 661,
      "own": 662,
      "ep": 663,
      "ated": 664,
      "Ġcharacters": 665,
      "Ġye": 666,
      "ian": 667,
      "Ġmak": 668,
      "ical": 669,
      "wh": 670,
      "gin": 671,
      "iew": 672,
      "Ġwork": 673,
      "ress": 674,
      "Ġser": 675,
      "Ġplay": 676,
      "ually": 677,
      "ach": 678,
      "Ġlove": 679,
      "Ġfilms": 680,
      "fect": 681,
      "we": 682,
      "ne": 683,
      "Ġplot": 684,
      "li": 685,
      "pect": 686,
      "Ġho": 687,
      "Ġyour": 688,
      "Ġseen": 689,
      "Ġmany": 690,
      "Ġnever": 691,
      "Ġaw": 692,
      "Ġtwo": 693,
      "ĠĠ": 694,
      "ph": 695,
      "self": 696,
      "ny": 697,
      "Ġbeing": 698,
      "Ġwant": 699,
      "Ġgr": 700,
      "Ġwhere": 701,
      "Ġsay": 702,
      "ved": 703,
      "Ġhor": 704,
      "ance": 705,
      "Ġacting": 706,
      "ens": 707,
      "),": 708,
      "ath": 709,
      "Ġbest": 710,
      "ittle": 711,
      "Ġdes": 712,
      "ang": 713,
      "Ġlife": 714,
      "Ġent": 715,
      "iz": 716,
      "ip": 717,
      "co": 718,
      "Ġthrough": 719,
      "Ġlittle": 720,
      "wn": 721,
      "Ġback": 722,
      "de": 723,
      "Ġpr": 724,
      "Ġcr": 725,
      "Ġever": 726,
      "urn": 727,
      "ans": 728,
      "ake": 729,
      "be": 730,
      "Ġrem": 731,
      "ber": 732,
      "ace": 733,
      "Ġmay": 734,
      "oth": 735,
      "Ġbetter": 736,
      "Ġrec": 737,
      "ult": 738,
      "Ġspe": 739,
      "Ġfo": 740,
      "ily": 741,
      "ild": 742,
      "if": 743,
      "ark": 744,
      "du": 745,
      "vel": 746,
      "ather": 747,
      "ise": 748,
      "ire": 749,
      "Ġstill": 750,
      "ions": 751,
      "Ġhere": 752,
      "!!": 753,
      "Ġscene": 754,
      "augh": 755,
      "ual": 756,
      "Ġsl": 757,
      "mo": 758,
      "Ġmin": 759,
      "Ġunder": 760,
      "Ġfind": 761,
      "Ġshould": 762,
      "Ġbel": 763,
      "Ġperfor": 764,
      "Ġke": 765,
      "hing": 766,
      "Ġthese": 767,
      "Ġcont": 768,
      "ac": 769,
      "ought": 770,
      "igh": 771,
      "Ġagain": 772,
      "Ġ2": 773,
      "ase": 774,
      "Ġdr": 775,
      "Ġatt": 776,
      "Ġscenes": 777,
      "vers": 778,
      "ertain": 779,
      "Ġkill": 780,
      "me": 781,
      "iend": 782,
      "Ġfeel": 783,
      "ater": 784,
      "'ve": 785,
      "ting": 786,
      "Ġnow": 787,
      "Ġwhile": 788,
      "Ġgi": 789,
      "Ġwhy": 790,
      "Ġsim": 791,
      "Ġnew": 792,
      "ents": 793,
      "Ġsomething": 794,
      "ree": 795,
      "Ġsuch": 796,
      "Ġlot": 797,
      "Ġtra": 798,
      "ning": 799,
      "Ġem": 800,
      "Ġinterest": 801,
      "ia": 802,
      "Ġinc": 803,
      "Ġbo": 804,
      "Ġhapp": 805,
      "Ġgen": 806,
      "Ġimp": 807,
      "'m": 808,
      "Ġhum": 809,
      "Ġsur": 810,
      "Ġstr": 811,
      "Ġap": 812,
      "ably": 813,
      "ense": 814,
      "ating": 815,
      "Ġold": 816,
      "Ġmus": 817,
      "Ġ19": 818,
      "fore": 819,
      "ng": 820,
      "Ġcast": 821,
      "less": 822,
      "Ġthose": 823,
      "der": 824,
      "ations": 825,
      "ason": 826,
      "arly": 827,
      "Ġfin": 828,
      "alk": 829,
      "Ġgir": 830,
      "Ġguy": 831,
      "Ġpoint": 832,
      "Ġperforman": 833,
      "up": 834,
      "Ġev": 835,
      "Ġwatching": 836,
      "Ġcou": 837,
      "Ġcar": 838,
      "Ġfam": 839,
      "ror": 840,
      "reen": 841,
      "Ġwom": 842,
      "Ġdoesn": 843,
      "Ġres": 844,
      "Ġactors": 845,
      "this": 846,
      "Ġdec": 847,
      "ect": 848,
      "ever": 849,
      "Ġdidn": 850,
      "Ġyears": 851,
      "ying": 852,
      "joy": 853,
      "Ġfunny": 854,
      "Ġbig": 855,
      "Ġter": 856,
      "Ġdown": 857,
      "Ġset": 858,
      "Ġenjoy": 859,
      "Ġob": 860,
      "Ġdirector": 861,
      "Ġview": 862,
      "Ġcomp": 863,
      "Ġbefore": 864,
      "Ġactually": 865,
      "Ġanother": 866,
      "Ġbelie": 867,
      "Ġche": 868,
      "Ġmakes": 869,
      "Ġstart": 870,
      "Ġtak": 871,
      "Ġfact": 872,
      "Ġyoung": 873,
      "Ġnothing": 874,
      "ial": 875,
      "Ġcomed": 876,
      "Ġmar": 877,
      "Ġhigh": 878,
      "Ġthough": 879,
      "erson": 880,
      "Ġlong": 881,
      "get": 882,
      "ute": 883,
      "Ġgoing": 884,
      "av": 885,
      "Ġsame": 886,
      "Ġmis": 887,
      "Ġfew": 888,
      "Ġprodu": 889,
      "Ġsub": 890,
      "eric": 891,
      "ool": 892,
      "ash": 893,
      "az": 894,
      "Ġpret": 895,
      "les": 896,
      "Ġtri": 897,
      "iv": 898,
      "ience": 899,
      "Ġwar": 900,
      "Ġrel": 901,
      "Ġexce": 902,
      "Ġgot": 903,
      "Ġworld": 904,
      "Ġori": 905,
      "Ġturn": 906,
      "Ġgirl": 907,
      "aw": 908,
      "--": 909,
      "ft": 910,
      "Ġwo": 911,
      "ffer": 912,
      "ub": 913,
      "Ġlaugh": 914,
      "cial": 915,
      "**": 916,
      "Ġown": 917,
      "Ġthought": 918,
      "Ġsupp": 919,
      "Ġorigin": 920,
      "Ġbit": 921,
      "'re": 922,
      "Ġfar": 923,
      "Ġapp": 924,
      "Ġfriend": 925,
      "ren": 926,
      "ffect": 927,
      "Ġhard": 928,
      "Ġsm": 929,
      "ript": 930,
      "ible": 931,
      "Ġcomple": 932,
      "Ġph": 933,
      "Ġthings": 934,
      "aut": 935,
      "Ġinv": 936,
      "ction": 937,
      "Ġsin": 938,
      "Ġquite": 939,
      "oss": 940,
      "Ġeffect": 941,
      "Ġkid": 942,
      "Ġpretty": 943,
      "ons": 944,
      "Ġbu": 945,
      "iting": 946,
      "Ġes": 947,
      "Ġ&": 948,
      "Ġaround": 949,
      "sp": 950,
      "Ġed": 951,
      "Ġseems": 952,
      "Ġneed": 953,
      "Ġright": 954,
      "ave": 955,
      "Ġcam": 956,
      "Ġscreen": 957,
      "Ġtake": 958,
      "ings": 959,
      "Ġhorror": 960,
      "Ġwonder": 961,
      "he": 962,
      "Ġperson": 963,
      "Ġenough": 964,
      "most": 965,
      "Ġacc": 966,
      "00": 967,
      "Ġhowever": 968,
      "ced": 969,
      "ways": 970,
      "Ġhel": 971,
      "ib": 972,
      "Ġmusic": 973,
      "Ġboth": 974,
      "Ġbas": 975,
      "Ġinst": 976,
      "Ġscript": 977,
      "ness": 978,
      "ween": 979,
      "Ġmust": 980,
      "Ġoriginal": 981,
      "Ġgive": 982,
      "Ġel": 983,
      "ically": 984,
      "Ġkind": 985,
      "ster": 986,
      "Ġop": 987,
      "Ġcra": 988,
      "ately": 989,
      "Ġbetween": 990,
      "ug": 991,
      "pr": 992,
      "Ġmom": 993,
      "ention": 994,
      "Ġappe": 995,
      "Ġchild": 996,
      "inem": 997,
      "Ġsex": 998,
      "lly": 999,
      "Ġcome": 1000,
      "Ġtimes": 1001,
      "Ġbeaut": 1002,
      "Ġsaw": 1003,
      "utes": 1004,
      "Ġput": 1005,
      "vious": 1006,
      "Ġseries": 1007,
      "Ġsound": 1008,
      "Ġreason": 1009,
      "ner": 1010,
      "app": 1011,
      "Ġwithout": 1012,
      "Ġcomedy": 1013,
      "Ġisn": 1014,
      "its": 1015,
      "Ġalways": 1016,
      "Ġrole": 1017,
      "Ġz": 1018,
      "\".": 1019,
      "Ġaction": 1020,
      "Ġmon": 1021,
      "Ġinteresting": 1022,
      "Ġclass": 1023,
      "\",": 1024,
      "ale": 1025,
      "Ġread": 1026,
      "Ġgets": 1027,
      "ock": 1028,
      "Ġcinem": 1029,
      "Ġtell": 1030,
      "Ġameric": 1031,
      "Ġwhole": 1032,
      "Ġep": 1033,
      "Ġlast": 1034,
      "ody": 1035,
      "Ġalmost": 1036,
      "Ġleast": 1037,
      "Ġrev": 1038,
      "icul": 1039,
      "Ġlead": 1040,
      "Ġsch": 1041,
      "Ġlet": 1042,
      "Ġsure": 1043,
      "Ġshot": 1044,
      "Ġdone": 1045,
      "Ġcle": 1046,
      "Ġhand": 1047,
      "ward": 1048,
      "Ġmight": 1049,
      "Ġaud": 1050,
      "Ġworth": 1051,
      "Ġexpect": 1052,
      "llow": 1053,
      "Ġide": 1054,
      "rible": 1055,
      "Ġminutes": 1056,
      "Ġcare": 1057,
      "raph": 1058,
      "Ġdiffer": 1059,
      "ell": 1060,
      "Ġcons": 1061,
      "ks": 1062,
      "ines": 1063,
      "ully": 1064,
      "arr": 1065,
      "Ġcomplete": 1066,
      "ane": 1067,
      "Ġbook": 1068,
      "hn": 1069,
      "Ġmain": 1070,
      "Ġexpl": 1071,
      "Ġ3": 1072,
      "ouse": 1073,
      "Ġfamily": 1074,
      "ord": 1075,
      "'ll": 1076,
      "Ġanything": 1077,
      "Ġcour": 1078,
      "bably": 1079,
      "Ġcall": 1080,
      "Ġbegin": 1081,
      "son": 1082,
      "no": 1083,
      "uring": 1084,
      "Ġart": 1085,
      "Ġsince": 1086,
      "though": 1087,
      "Ġrun": 1088,
      "stand": 1089,
      "Ġboy": 1090,
      "Ġperformance": 1091,
      "xt": 1092,
      "Ġca": 1093,
      "Ġentertain": 1094,
      "Ġgl": 1095,
      "Ġhelp": 1096,
      "ail": 1097,
      "Ġbor": 1098,
      "Ġadd": 1099,
      "Ġtv": 1100,
      "Ġaway": 1101,
      "ange": 1102,
      "Ġprobably": 1103,
      "alog": 1104,
      "Ġext": 1105,
      "cially": 1106,
      "Ġyet": 1107,
      "Ġwoman": 1108,
      "Ġfound": 1109,
      "Ġmean": 1110,
      "ss": 1111,
      "Ġpol": 1112,
      "Ġins": 1113,
      "Ġnight": 1114,
      "Ġcomm": 1115,
      "io": 1116,
      "Ġanyone": 1117,
      "ism": 1118,
      "Ġour": 1119,
      "Ġday": 1120,
      "Ġste": 1121,
      "oney": 1122,
      "Ġmat": 1123,
      "Ġworst": 1124,
      "Ġrather": 1125,
      "mend": 1126,
      "era": 1127,
      "Ġsequ": 1128,
      "Ġdialog": 1129,
      "istic": 1130,
      "Ġrob": 1131,
      "Ġ10": 1132,
      "ign": 1133,
      "Ġeach": 1134,
      "ures": 1135,
      "ative": 1136,
      "vd": 1137,
      "aster": 1138,
      "ime": 1139,
      "Ġty": 1140,
      "ition": 1141,
      "Ġpoor": 1142,
      "Ġabs": 1143,
      "Ġac": 1144,
      "uck": 1145,
      "Ġsuper": 1146,
      "Ġcre": 1147,
      "Ġmiss": 1148,
      "als": 1149,
      "Ġind": 1150,
      "Ġhal": 1151,
      "ject": 1152,
      "Ġpres": 1153,
      "pecially": 1154,
      "cond": 1155,
      "Ġdvd": 1156,
      "isod": 1157,
      "ling": 1158,
      "Ġkeep": 1159,
      "Ġhappen": 1160,
      "Ġdef": 1161,
      "Ġepisod": 1162,
      "wood": 1163,
      "Ġbelieve": 1164,
      "Ġmaking": 1165,
      "led": 1166,
      "ten": 1167,
      ".\"": 1168,
      "Ġvers": 1169,
      "Ġmind": 1170,
      "Ġlik": 1171,
      "Ġjohn": 1172,
      "ady": 1173,
      "Ġcourse": 1174,
      "osed": 1175,
      "Ġtrying": 1176,
      "Ġmur": 1177,
      "Ġgra": 1178,
      "ember": 1179,
      "ah": 1180,
      "ret": 1181,
      "Ġsurpr": 1182,
      "Ġdifferent": 1183,
      "sh": 1184,
      "Ġjob": 1185,
      "ank": 1186,
      "Ġsecond": 1187,
      "Ġport": 1188,
      "ither": 1189,
      "ograph": 1190,
      "Ġshort": 1191,
      "ingly": 1192,
      "Ġplace": 1193,
      "Ġgoes": 1194,
      "Ġcomes": 1195,
      "Ġsense": 1196,
      "Ġunf": 1197,
      "gether": 1198,
      "Ġless": 1199,
      "Ġconf": 1200,
      "Ġhaving": 1201,
      "Ġeverything": 1202,
      "umb": 1203,
      "Ġending": 1204,
      "ommend": 1205,
      "Ġshows": 1206,
      "Ġperfect": 1207,
      "Ġrest": 1208,
      "gr": 1209,
      "blem": 1210,
      "Ġrecommend": 1211,
      "Ġplayed": 1212,
      "Ġfan": 1213,
      "oint": 1214,
      "ates": 1215,
      "Ġproblem": 1216,
      "Ġblack": 1217,
      "ead": 1218,
      "Ġdep": 1219,
      "Ġstand": 1220,
      "ife": 1221,
      "'d": 1222,
      "iter": 1223,
      "ments": 1224,
      "sc": 1225,
      "ues": 1226,
      "empt": 1227,
      "Ġthree": 1228,
      "Ġhalf": 1229,
      "Ġchr": 1230,
      "Ġlooking": 1231,
      "iece": 1232,
      "Ġactor": 1233,
      "Ġcreat": 1234,
      "Ġcertain": 1235,
      "Ġsomeone": 1236,
      "Ġstar": 1237,
      "....": 1238,
      "ics": 1239,
      "Ġmoney": 1240,
      "lud": 1241,
      "Ġey": 1242,
      "Ġfollow": 1243,
      "ower": 1244,
      "iful": 1245,
      "Ġlooks": 1246,
      "Ġwasn": 1247,
      "Ġeffects": 1248,
      "ilar": 1249,
      "Ġwatched": 1250,
      "Ġhead": 1251,
      "arent": 1252,
      "Ġmen": 1253,
      "ney": 1254,
      "Ġbud": 1255,
      "Ġdram": 1256,
      "ality": 1257,
      "ream": 1258,
      "Ġonce": 1259,
      "ider": 1260,
      "not": 1261,
      "Ġsit": 1262,
      "Ġtrue": 1263,
      "Ġespecially": 1264,
      "Ġtogether": 1265,
      "Ġnor": 1266,
      "Ġmaybe": 1267,
      "Ġeveryone": 1268,
      "Ġfav": 1269,
      "Ġsk": 1270,
      "Ġimag": 1271,
      "Ġtalk": 1272,
      "Ġvis": 1273,
      "my": 1274,
      "sy": 1275,
      "Ġsy": 1276,
      "ray": 1277,
      "Ġnice": 1278,
      "way": 1279,
      "Ġdra": 1280,
      "itch": 1281,
      "Ġspecial": 1282,
      "Ġplays": 1283,
      "Ġcor": 1284,
      "Ġsaid": 1285,
      "Ġaudience": 1286,
      "Ġeng": 1287,
      "land": 1288,
      "Ġobvious": 1289,
      "Ġfall": 1290,
      "Ġunderstand": 1291,
      "leas": 1292,
      "day": 1293,
      "Ġdeath": 1294,
      "Ġreview": 1295,
      "ences": 1296,
      "Ġposs": 1297,
      "Ġelse": 1298,
      "Ġinstead": 1299,
      "llent": 1300,
      "Ġdet": 1301,
      "aps": 1302,
      "Ġalthough": 1303,
      "ted": 1304,
      "Ġduring": 1305,
      "Ġtakes": 1306,
      "Ġleft": 1307,
      "Ġlater": 1308,
      "Ġsing": 1309,
      "Ġrom": 1310,
      "Ġmor": 1311,
      "Ġhouse": 1312,
      "gg": 1313,
      "Ġhimself": 1314,
      "air": 1315,
      "Ġform": 1316,
      "Ġear": 1317,
      "cing": 1318,
      "ortun": 1319,
      "Ġann": 1320,
      "Ġtot": 1321,
      "Ġbeautiful": 1322,
      "Ġele": 1323,
      "ames": 1324,
      "Ġsimp": 1325,
      "Ġseeing": 1326,
      "Ġhome": 1327,
      "Ġexcellent": 1328,
      "Ġversion": 1329,
      "ier": 1330,
      "Ġamerican": 1331,
      "Ġhour": 1332,
      "Ġtal": 1333,
      "llywood": 1334,
      "upid": 1335,
      "Ġidea": 1336,
      "Ġcame": 1337,
      "atic": 1338,
      "ited": 1339,
      "ists": 1340,
      "Ġuse": 1341,
      "Ġyear": 1342,
      "Ġdead": 1343,
      "ross": 1344,
      "Ġentire": 1345,
      "ional": 1346,
      "vin": 1347,
      "Ġdist": 1348,
      "ix": 1349,
      "Ġtit": 1350,
      "Ġtop": 1351,
      "ann": 1352,
      "Ġwife": 1353,
      "reak": 1354,
      "Ġstupid": 1355,
      "Ġlow": 1356,
      "Ġmem": 1357,
      "Ġserious": 1358,
      "ired": 1359,
      "Ġinvol": 1360,
      "ton": 1361,
      "Ġ4": 1362,
      "Ġdefin": 1363,
      "Ġfeat": 1364,
      "Ġsad": 1365,
      "Ġref": 1366,
      "but": 1367,
      "Ġhist": 1368,
      "dd": 1369,
      "fully": 1370,
      "like": 1371,
      "10": 1372,
      "ides": 1373,
      "Ġpict": 1374,
      "Ġpar": 1375,
      "Ġexc": 1376,
      "Ġstud": 1377,
      "Ġunt": 1378,
      "cept": 1379,
      "Ġexper": 1380,
      "Ġfather": 1381,
      "Ġlack": 1382,
      "Ġass": 1383,
      "Ġanim": 1384,
      "Ġalong": 1385,
      "Ġret": 1386,
      "Ġremember": 1387,
      "Ġcount": 1388,
      "Ġvi": 1389,
      "Ġdan": 1390,
      "Ġfight": 1391,
      "Ġhuman": 1392,
      "Ġattempt": 1393,
      "Ġsimply": 1394,
      "Ġdisapp": 1395,
      "Ġcompletely": 1396,
      "Ġrep": 1397,
      "ird": 1398,
      "Ġused": 1399,
      "uth": 1400,
      "yle": 1401,
      "Ġcop": 1402,
      "uff": 1403,
      "Ġopen": 1404,
      "Ġwa": 1405,
      "Ġbeh": 1406,
      "Ġdisappoint": 1407,
      "Ġexp": 1408,
      "Ġsong": 1409,
      "Ġhope": 1410,
      "Ġcol": 1411,
      "ger": 1412,
      "Ġloc": 1413,
      "Ġbar": 1414,
      "Ġheart": 1415,
      "Ġgener": 1416,
      "Ġwrong": 1417,
      "olute": 1418,
      "ains": 1419,
      "Ġword": 1420,
      "ins": 1421,
      "ised": 1422,
      "Ġvide": 1423,
      "ont": 1424,
      "ared": 1425,
      "Ġschool": 1426,
      "uly": 1427,
      "Ġbra": 1428,
      "Ġfull": 1429,
      "omb": 1430,
      "Ġeither": 1431,
      "Ġsw": 1432,
      "Ġmess": 1433,
      "Ġline": 1434,
      "Ġtry": 1435,
      "Ġabsolute": 1436,
      "Ġkids": 1437,
      "ract": 1438,
      "Ġ--": 1439,
      "Ġdark": 1440,
      "Ġhollywood": 1441,
      "Ġboring": 1442,
      "Ġinclud": 1443,
      "lease": 1444,
      "Ġ8": 1445,
      "Ġfriends": 1446,
      "hip": 1447,
      "Ġir": 1448,
      "Ġra": 1449,
      "Ġemot": 1450,
      "vo": 1451,
      "tle": 1452,
      "Ġeas": 1453,
      "ography": 1454,
      "Ġgiven": 1455,
      "Ġcamera": 1456,
      "Ġsupposed": 1457,
      "Ġpass": 1458,
      "com": 1459,
      "ond": 1460,
      "Ġamaz": 1461,
      "Ġwomen": 1462,
      "what": 1463,
      "Ġclassic": 1464,
      "ters": 1465,
      "Ġperformances": 1466,
      "Ġcoll": 1467,
      "Ġproduction": 1468,
      "Ġsmall": 1469,
      "Ġhero": 1470,
      "ied": 1471,
      "ys": 1472,
      "amp": 1473,
      "Ġconc": 1474,
      "Ġfail": 1475,
      "Ġnext": 1476,
      "Ġcouple": 1477,
      "Ġchrist": 1478,
      "Ġje": 1479,
      "itten": 1480,
      "Ġvo": 1481,
      "Ġtruly": 1482,
      "ru": 1483,
      "Ġ5": 1484,
      "ork": 1485,
      "Ġuntil": 1486,
      "Ġdou": 1487,
      "Ġexam": 1488,
      "idd": 1489,
      "cy": 1490,
      "lish": 1491,
      "Ġconsider": 1492,
      "Ġviol": 1493,
      "Ġreg": 1494,
      "Ġsort": 1495,
      "Ġfavor": 1496,
      "Ã©": 1497,
      "Ġawful": 1498,
      "Ġparticul": 1499,
      "Ġname": 1500,
      "Ġpa": 1501,
      "aring": 1502,
      "ently": 1503,
      "Ġhu": 1504,
      "Ġlight": 1505,
      "ote": 1506,
      "Ġbudget": 1507,
      "Ġdri": 1508,
      "Ġmurder": 1509,
      "Ġbecom": 1510,
      "Ġsho": 1511,
      "Ġdefinite": 1512,
      "Ġcred": 1513,
      "Ġsever": 1514,
      "Ġwon": 1515,
      "haps": 1516,
      "Ġhumor": 1517,
      "Ġnat": 1518,
      "Ġexcept": 1519,
      "Ġflick": 1520,
      "ount": 1521,
      "play": 1522,
      "Ġterrible": 1523,
      "que": 1524,
      "Ġgetting": 1525,
      "Ġportray": 1526,
      "Ġmoments": 1527,
      "Ġpower": 1528,
      "ities": 1529,
      "Ġvideo": 1530,
      "Ġface": 1531,
      "Ġadv": 1532,
      "Ġpain": 1533,
      "to": 1534,
      "Ġ7": 1535,
      "arn": 1536,
      "Ġsat": 1537,
      "illi": 1538,
      "sel": 1539,
      "elt": 1540,
      "Ġitself": 1541,
      "Ġdem": 1542,
      "cus": 1543,
      "velop": 1544,
      "Ġmaster": 1545,
      "iness": 1546,
      "Ġblood": 1547,
      "Ġmother": 1548,
      "Ġwalk": 1549,
      "ize": 1550,
      "Ġwonderful": 1551,
      "thers": 1552,
      "oles": 1553,
      "Ġothers": 1554,
      "Ġbat": 1555,
      "Ġguess": 1556,
      "Ġepisode": 1557,
      "med": 1558,
      "Ġmr": 1559,
      "Ġcut": 1560,
      "mak": 1561,
      "ott": 1562,
      "ison": 1563,
      "Ġrich": 1564,
      "ility": 1565,
      "body": 1566,
      "Ġcase": 1567,
      "Ġlive": 1568,
      "ĠÂ": 1569,
      "Ġjack": 1570,
      "ps": 1571,
      "Ġplaying": 1572,
      "Ġslow": 1573,
      "Ġperhaps": 1574,
      "Ġdoing": 1575,
      "Ġsn": 1576,
      "Ġmeet": 1577,
      "Ġtalent": 1578,
      "Ġoften": 1579,
      "cess": 1580,
      "Ġgives": 1581,
      "Ġdefinitely": 1582,
      "ts": 1583,
      "ief": 1584,
      "Ġdialogue": 1585,
      "Ġ9": 1586,
      "olog": 1587,
      "cum": 1588,
      "ident": 1589,
      "Ġlines": 1590,
      "unch": 1591,
      "reme": 1592,
      "Ġge": 1593,
      "Ġchildren": 1594,
      "Ġearly": 1595,
      "Ġwent": 1596,
      "Ġcur": 1597,
      "Ġdesp": 1598,
      "Ġstars": 1599,
      "Ġclose": 1600,
      "Ġ.": 1601,
      "kes": 1602,
      "Ġcapt": 1603,
      "Ġgod": 1604,
      "Ġcouldn": 1605,
      "ories": 1606,
      "Ġcent": 1607,
      "Ġpiece": 1608,
      "Ġrid": 1609,
      "oil": 1610,
      ",\"": 1611,
      "mer": 1612,
      "Ġok": 1613,
      "ows": 1614,
      "Ġrent": 1615,
      "ony": 1616,
      "Ġtitle": 1617,
      "Ġtrans": 1618,
      "Ġquest": 1619,
      "ined": 1620,
      "Ġimpress": 1621,
      "by": 1622,
      "Ġmich": 1623,
      "Ġabsolutely": 1624,
      "Ġstre": 1625,
      "Ġhar": 1626,
      "Ġunfortun": 1627,
      "tern": 1628,
      "Ġfinally": 1629,
      "Ġbecome": 1630,
      "Ġcinema": 1631,
      "Ġdevelop": 1632,
      "ho": 1633,
      "Ġstrong": 1634,
      "Ġliked": 1635,
      "Ġfant": 1636,
      "Ġval": 1637,
      "right": 1638,
      "Ġcertainly": 1639,
      "illy": 1640,
      "Ġworse": 1641,
      "Ġentertaining": 1642,
      "enn": 1643,
      "Ġpat": 1644,
      "ured": 1645,
      "Ġactress": 1646,
      "line": 1647,
      "Ġpred": 1648,
      "Ġpicture": 1649,
      "illiant": 1650,
      "Ġside": 1651,
      "ibly": 1652,
      "ming": 1653,
      "Ġstyle": 1654,
      "Ġloved": 1655,
      "ex": 1656,
      "Ġuni": 1657,
      "ler": 1658,
      "Ġmention": 1659,
      "Ġfelt": 1660,
      "ush": 1661,
      "ouch": 1662,
      "ael": 1663,
      "Ġseveral": 1664,
      "ley": 1665,
      "Ġguys": 1666,
      "Ġpur": 1667,
      "Ġoverall": 1668,
      "Ġbeginning": 1669,
      "Ġrelations": 1670,
      "Ġbrilliant": 1671,
      "gu": 1672,
      "Ġwritten": 1673,
      "Ġdeli": 1674,
      "Ġid": 1675,
      "Ġwaste": 1676,
      "Ġextreme": 1677,
      "ccess": 1678,
      "Ġlost": 1679,
      "ized": 1680,
      "king": 1681,
      "vis": 1682,
      "Ġdav": 1683,
      "Ġagainst": 1684,
      "Ġpop": 1685,
      "Ġpast": 1686,
      "Ġmag": 1687,
      "Ġson": 1688,
      "Ġgame": 1689,
      "Ġadm": 1690,
      "imes": 1691,
      "ular": 1692,
      "riend": 1693,
      "ided": 1694,
      "Ġfans": 1695,
      "Ġsou": 1696,
      "Ġtotally": 1697,
      "Ġdirection": 1698,
      "ery": 1699,
      "ready": 1700,
      "Ġwanted": 1701,
      "Ġseemed": 1702,
      "Ġlives": 1703,
      "Ġhon": 1704,
      "selves": 1705,
      "iss": 1706,
      "Ġtown": 1707,
      "pped": 1708,
      "Ġwin": 1709,
      "Ġyes": 1710,
      "Ġdrama": 1711,
      "Ġfair": 1712,
      "Ġsom": 1713,
      "Ġthrill": 1714,
      "sych": 1715,
      "Ġexample": 1716,
      "Ġthroughout": 1717,
      "Ġalready": 1718,
      "aughter": 1719,
      "Ġsupport": 1720,
      "Ġbecomes": 1721,
      "Ġbased": 1722,
      "light": 1723,
      "where": 1724,
      "Ġfinal": 1725,
      "Ġrelationship": 1726,
      "Ġet": 1727,
      "Ġsuccess": 1728,
      "vable": 1729,
      "Ġcost": 1730,
      "Ġmed": 1731,
      "Ġlist": 1732,
      "Ġinf": 1733,
      "Ġwhite": 1734,
      "bo": 1735,
      "Ġstra": 1736,
      "ms": 1737,
      "Ġevil": 1738,
      "rif": 1739,
      "Ġfine": 1740,
      "Ġsci": 1741,
      "Ġable": 1742,
      "Ġcalled": 1743,
      "Ġwish": 1744,
      "lling": 1745,
      "Ġdeal": 1746,
      "Ġhit": 1747,
      "Ġlar": 1748,
      "ric": 1749,
      "Ġvill": 1750,
      "ape": 1751,
      "Ġpet": 1752,
      "Ġhistory": 1753,
      "Ġstuff": 1754,
      "Ġwood": 1755,
      "Ġdays": 1756,
      "ged": 1757,
      "Ġkiller": 1758,
      "Ġbro": 1759,
      "Ġself": 1760,
      "Ġquality": 1761,
      "Ġwriting": 1762,
      "Ġnum": 1763,
      "Ġwants": 1764,
      "Ġgrou": 1765,
      "Ġunfortunately": 1766,
      "unk": 1767,
      "Ġvict": 1768,
      "Ġcomment": 1769,
      "Ġdeser": 1770,
      "Ġcrit": 1771,
      "ĠÂĸ": 1772,
      "rew": 1773,
      "ister": 1774,
      "Ġpsych": 1775,
      "Ġocc": 1776,
      "Ġdespite": 1777,
      "lo": 1778,
      "Ġsusp": 1779,
      "Ġamazing": 1780,
      "Ġtouch": 1781,
      "Ġhorrible": 1782,
      "Ġtoday": 1783,
      "??": 1784,
      "ages": 1785,
      "Ġmaj": 1786,
      "Ġworks": 1787,
      "Ġannoy": 1788,
      "Ġmatter": 1789,
      "Ġsoon": 1790,
      "Ġmyster": 1791,
      "br": 1792,
      "Ġeff": 1793,
      "how": 1794,
      "amed": 1795,
      "Ġfoot": 1796,
      "Ġfem": 1797,
      "orge": 1798,
      "Ġpick": 1799,
      "tra": 1800,
      "Ġsitu": 1801,
      "Ġimport": 1802,
      "Ġpresent": 1803,
      "yn": 1804,
      "orn": 1805,
      "ern": 1806,
      "Ġtries": 1807,
      "Ġprom": 1808,
      "Ġviewer": 1809,
      "Ġbreak": 1810,
      "cent": 1811,
      "Ġteen": 1812,
      "ung": 1813,
      "cument": 1814,
      "Ġdev": 1815,
      "Ġsec": 1816,
      "Ġturns": 1817,
      "Ġenjoyed": 1818,
      "ew": 1819,
      "Ġmot": 1820,
      "Ġgave": 1821,
      "Ġtre": 1822,
      "Ġeyes": 1823,
      "Ġparts": 1824,
      "used": 1825,
      "ination": 1826,
      "Ġstop": 1827,
      "Ġlearn": 1828,
      "ude": 1829,
      "Ġfore": 1830,
      "Ġfavorite": 1831,
      "Ġtech": 1832,
      "Ġhilar": 1833,
      "Ġnone": 1834,
      "Ġshoot": 1835,
      "Ġprof": 1836,
      "Ġbehind": 1837,
      "Ġcult": 1838,
      "Ġcontin": 1839,
      "Ġincred": 1840,
      "etic": 1841,
      "19": 1842,
      "Ġappear": 1843,
      "Ġlate": 1844,
      "Ġmichael": 1845,
      "Ġexact": 1846,
      "rib": 1847,
      "Ġsomet": 1848,
      "Ġnovel": 1849,
      "Ġlea": 1850,
      "Ġetc": 1851,
      "Ġgirls": 1852,
      "ien": 1853,
      "Ġger": 1854,
      "Ġdream": 1855,
      "ards": 1856,
      "Ġgenre": 1857,
      "ax": 1858,
      "Ġoh": 1859,
      "ese": 1860,
      "Ġthemselves": 1861,
      "yp": 1862,
      "Ġhell": 1863,
      "Ġopp": 1864,
      "Ġmad": 1865,
      "Ġmoment": 1866,
      "Ġtyp": 1867,
      "Ġcity": 1868,
      "Ġlevel": 1869,
      "Ġrobert": 1870,
      "Ġdocument": 1871,
      "itive": 1872,
      "Ġgroup": 1873,
      "Ġfig": 1874,
      "Ġapparent": 1875,
      "Ġmyself": 1876,
      "Ġmajor": 1877,
      "Ġstarts": 1878,
      "Ġkilled": 1879,
      "Ġgar": 1880,
      "ik": 1881,
      "Ġspeak": 1882,
      "Ġtom": 1883,
      "Ġant": 1884,
      "ket": 1885,
      "iet": 1886,
      "Ġsle": 1887,
      "Ġinde": 1888,
      "Ġconst": 1889,
      "Ġrock": 1890,
      "Ġbus": 1891,
      "leased": 1892,
      "Ġthinking": 1893,
      "Ġtele": 1894,
      "Ġ,": 1895,
      "antly": 1896,
      "Ġsays": 1897,
      "astic": 1898,
      "Ġcinemat": 1899,
      "Ġswe": 1900,
      "Ġdirected": 1901,
      "Ġobviously": 1902,
      "Ġred": 1903,
      "Ġevent": 1904,
      "Ġhilarious": 1905,
      "ried": 1906,
      "Ġdecent": 1907,
      "Ġhighly": 1908,
      "iculous": 1909,
      "Ġvoice": 1910,
      "lic": 1911,
      "Ġtook": 1912,
      "ific": 1913,
      "Ġreturn": 1914,
      "Ġeffort": 1915,
      "Ġintell": 1916,
      "band": 1917,
      "Ġchang": 1918,
      "con": 1919,
      "Ġdaughter": 1920,
      "Ġhappens": 1921,
      "Ġgun": 1922,
      "Ġsometimes": 1923,
      "Ġmil": 1924,
      "Ġheard": 1925,
      "using": 1926,
      "ma": 1927,
      "Ġanyway": 1928,
      "Ġtechn": 1929,
      "Ġfour": 1930,
      "Ġfeeling": 1931,
      "Ġexperience": 1932,
      "Ġbur": 1933,
      "Ġhus": 1934,
      "Ġspoil": 1935,
      "Ġhold": 1936,
      "bl": 1937,
      "ump": 1938,
      "Ġpri": 1939,
      "ural": 1940,
      "Ġcho": 1941,
      "ising": 1942,
      "Ġbrit": 1943,
      "Ġroom": 1944,
      "Ġage": 1945,
      "ior": 1946,
      "Ġben": 1947,
      "Ġtype": 1948,
      "go": 1949,
      "Ġair": 1950,
      "akes": 1951,
      "Ġcool": 1952,
      "Ġrating": 1953,
      "Ġridiculous": 1954,
      "cl": 1955,
      "Ġve": 1956,
      "Ġvar": 1957,
      "!!!": 1958,
      "bel": 1959,
      "Ġhot": 1960,
      "Ġclich": 1961,
      "Ġscore": 1962,
      "Ġorder": 1963,
      "Ġchance": 1964,
      "Ġstories": 1965,
      "ator": 1966,
      "Ġtold": 1967,
      "Ġleave": 1968,
      "Ġconvin": 1969,
      "Ġpredict": 1970,
      "Ġstrange": 1971,
      "Ġesc": 1972,
      "gan": 1973,
      "ats": 1974,
      "nded": 1975,
      "Ġcheap": 1976,
      ".)": 1977,
      "Ġcoming": 1978,
      "anger": 1979,
      "Ġinvolved": 1980,
      "Ġbab": 1981,
      "Ġextremely": 1982,
      "Ġopin": 1983,
      "Ġcannot": 1984,
      "ino": 1985,
      "Ġsol": 1986,
      "Ġroles": 1987,
      "Ġviolence": 1988,
      "Ġcrap": 1989,
      "Ġstay": 1990,
      "use": 1991,
      "Ġsimple": 1992,
      "Ġdisco": 1993,
      "rench": 1994,
      "Ġwouldn": 1995,
      "Ġdog": 1996,
      "antic": 1997,
      "Ġbrother": 1998,
      "oon": 1999,
      "nds": 2000,
      "zy": 2001,
      "Ġpolice": 2002,
      "Ġliving": 2003,
      "Ġquick": 2004,
      "Ġhusband": 2005,
      "Ġplan": 2006,
      "Ġmove": 2007,
      "Ġbring": 2008,
      "cut": 2009,
      "dy": 2010,
      "Ġcountry": 2011,
      "Ġ6": 2012,
      "Ġlooked": 2013,
      "Ġprov": 2014,
      "Ġdeep": 2015,
      "Ġshock": 2016,
      "Ġweak": 2017,
      "Ġhappened": 2018,
      "Ġresult": 2019,
      "Ġland": 2020,
      "Ġten": 2021,
      "Ġwhe": 2022,
      "Ġcamp": 2023,
      "Ġmusical": 2024,
      "Ġago": 2025,
      "ians": 2026,
      "Ġmill": 2027,
      "Ġpay": 2028,
      "cle": 2029,
      "Ġsequel": 2030,
      "iddle": 2031,
      "Ġhuge": 2032,
      "cer": 2033,
      "eless": 2034,
      "Ġpos": 2035,
      "Ġlu": 2036,
      "owing": 2037,
      "arch": 2038,
      "Ġhonest": 2039,
      "Ġgore": 2040,
      "Ġsave": 2041,
      "Ġtaken": 2042,
      "Ġshown": 2043,
      "Ġenglish": 2044,
      "ement": 2045,
      "vision": 2046,
      "Ġpot": 2047,
      "rop": 2048,
      "Ġla": 2049,
      "ives": 2050,
      "Ġsym": 2051,
      "Ġsil": 2052,
      "rodu": 2053,
      "Ġwes": 2054,
      "Ġpolit": 2055,
      "Ġforget": 2056,
      "Ġwriter": 2057,
      "old": 2058,
      "Ġsubject": 2059,
      "urb": 2060,
      "Ġsum": 2061,
      "ational": 2062,
      "Ġprot": 2063,
      "Ġbody": 2064,
      "ek": 2065,
      "Ġfut": 2066,
      "Ġacross": 2067,
      "side": 2068,
      "Ġill": 2069,
      "aged": 2070,
      "ots": 2071,
      "Ġphot": 2072,
      "Ġfrank": 2073,
      "ones": 2074,
      "Ġzomb": 2075,
      "Ġdest": 2076,
      "Ġknown": 2077,
      "Ġexactly": 2078,
      "Ġdavid": 2079,
      "Ġcheck": 2080,
      "Ġcareer": 2081,
      "Ġnumber": 2082,
      "Ġ200": 2083,
      "Ġopening": 2084,
      "iety": 2085,
      "Ġprem": 2086,
      "Ġmel": 2087,
      "ield": 2088,
      "Ġreleased": 2089,
      "ground": 2090,
      "Ġparticularly": 2091,
      "Ġsuspense": 2092,
      "Ġalone": 2093,
      "form": 2094,
      "Ġsaying": 2095,
      "Ġhours": 2096,
      "Ġcinematography": 2097,
      "void": 2098,
      "any": 2099,
      "itting": 2100,
      "ffic": 2101,
      "Ġyourself": 2102,
      "Ġnon": 2103,
      "Ġlou": 2104,
      "Ġreality": 2105,
      "Ġplease": 2106,
      "Ġdoub": 2107,
      "ances": 2108,
      "Ġannoying": 2109,
      "Ġbuild": 2110,
      "Ġjokes": 2111,
      "Ġseriously": 2112,
      "iam": 2113,
      "Ġmart": 2114,
      "Ġjames": 2115,
      "Ġsold": 2116,
      "ral": 2117,
      "ival": 2118,
      "pping": 2119,
      "Ġmiddle": 2120,
      "Ġmoder": 2121,
      "enty": 2122,
      "Ġtreat": 2123,
      "ball": 2124,
      "Ġstep": 2125,
      "Ġul": 2126,
      "Ġpull": 2127,
      "ove": 2128,
      "Ġpossible": 2129,
      "Ġones": 2130,
      "Ġspace": 2131,
      "Ġsimilar": 2132,
      "wr": 2133,
      "Ġteam": 2134,
      "wards": 2135,
      "Ġshots": 2136,
      "Ġfocus": 2137,
      "ury": 2138,
      "Ġnear": 2139,
      "Ġopinion": 2140,
      "Ġparent": 2141,
      "Ġends": 2142,
      "Ġearth": 2143,
      "Ġfill": 2144,
      "ential": 2145,
      "Ġdesc": 2146,
      "Ġcart": 2147,
      "Ġrunning": 2148,
      "Ġer": 2149,
      "Ġstarted": 2150,
      "Ġdam": 2151,
      "Ġusually": 2152,
      "ina": 2153,
      "apt": 2154,
      "Ġut": 2155,
      "who": 2156,
      "Ġang": 2157,
      "Ġamong": 2158,
      "Ġseason": 2159,
      "Ġstreet": 2160,
      "Ġchange": 2161,
      "iction": 2162,
      "real": 2163,
      "Ġdocumentary": 2164,
      "yond": 2165,
      "Ġnarr": 2166,
      "Ġask": 2167,
      "Ġusual": 2168,
      "Ġstraight": 2169,
      "Ġsent": 2170,
      "Ġfilmmak": 2171,
      "Ġmet": 2172,
      "Ġmist": 2173,
      "uss": 2174,
      "Ġhop": 2175,
      "Ġimportant": 2176,
      "Ġfemale": 2177,
      "ili": 2178,
      "Ġknew": 2179,
      "Ġsingle": 2180,
      "Ġsam": 2181,
      "Ġgerman": 2182,
      "Ġgang": 2183,
      "Ġwhose": 2184,
      "Ġdisappointed": 2185,
      "Ġknows": 2186,
      "Ġapart": 2187,
      "Ġtaking": 2188,
      "ugg": 2189,
      "key": 2190,
      "Ġsilly": 2191,
      "Ġdie": 2192,
      "Ġsomewhat": 2193,
      "Ġking": 2194,
      "****": 2195,
      "Ġeye": 2196,
      "Ġlocal": 2197,
      "Ġsor": 2198,
      "cks": 2199,
      "ered": 2200,
      "Ġdetail": 2201,
      "Ġwords": 2202,
      "mos": 2203,
      "wise": 2204,
      "Ġbeyond": 2205,
      "su": 2206,
      "Ġturned": 2207,
      "well": 2208,
      "Ġattention": 2209,
      "Ġ20": 2210,
      "Ġfinds": 2211,
      "Ġbox": 2212,
      "ital": 2213,
      "which": 2214,
      "Ġspir": 2215,
      "apan": 2216,
      "Ġremind": 2217,
      "Ġodd": 2218,
      "Ġmodern": 2219,
      "read": 2220,
      "Ġjud": 2221,
      "gy": 2222,
      "Ġdrug": 2223,
      "Ġhands": 2224,
      "ey": 2225,
      "back": 2226,
      "Ġproblems": 2227,
      "Ġtelevision": 2228,
      "let": 2229,
      "Ġequ": 2230,
      "Ġaren": 2231,
      "cr": 2232,
      "oof": 2233,
      "Ġdue": 2234,
      "Ġemb": 2235,
      "ky": 2236,
      "eng": 2237,
      "ald": 2238,
      "Ġbasically": 2239,
      "Ġupon": 2240,
      "Ġcontro": 2241,
      "Ġtalking": 2242,
      "Ġsecret": 2243,
      "Ġosc": 2244,
      "Ġepisodes": 2245,
      "reci": 2246,
      "Ġlaw": 2247,
      "Ġpub": 2248,
      "Ġscary": 2249,
      "Ġgold": 2250,
      "Ġcompl": 2251,
      "ants": 2252,
      "ctor": 2253,
      "Ġcover": 2254,
      "nding": 2255,
      "ĠclichÃ©": 2256,
      "Ġclearly": 2257,
      "!\"": 2258,
      "Ġmostly": 2259,
      "Ġ*": 2260,
      "Ġfur": 2261,
      "Ġrespect": 2262,
      "Ġru": 2263,
      "tim": 2264,
      "ires": 2265,
      "unt": 2266,
      "Ġfrench": 2267,
      "aced": 2268,
      "Ġpleas": 2269,
      "Ġsequence": 2270,
      "Ġatmos": 2271,
      "ished": 2272,
      "Ġevents": 2273,
      "Ġapparently": 2274,
      "Ġsign": 2275,
      "ises": 2276,
      "Ġjapan": 2277,
      "ls": 2278,
      "you": 2279,
      "Ġbill": 2280,
      "gn": 2281,
      "Ġhappy": 2282,
      "Ġavoid": 2283,
      "Ġtheat": 2284,
      "head": 2285,
      "Ġincluding": 2286,
      "Ġbritish": 2287,
      "Ġwestern": 2288,
      "orable": 2289,
      "Ġfast": 2290,
      "track": 2291,
      "ubb": 2292,
      "Ġintellig": 2293,
      "Ġdull": 2294,
      "Ġhate": 2295,
      "Ġwilliam": 2296,
      "Ġmark": 2297,
      "ained": 2298,
      "usion": 2299,
      "Ġcreep": 2300,
      "Ġtells": 2301,
      "Ġforg": 2302,
      "Ġmater": 2303,
      "aim": 2304,
      "Ġclear": 2305,
      "otic": 2306,
      "Ġmer": 2307,
      "ok": 2308,
      "Ġprevious": 2309,
      "Ġcat": 2310,
      "Ġri": 2311,
      "Ġsongs": 2312,
      "Ġquestion": 2313,
      "bert": 2314,
      "Ġpath": 2315,
      "Ġpredictable": 2316,
      "bs": 2317,
      "Ġromantic": 2318,
      "Ġfuture": 2319,
      "Ġvir": 2320,
      "Ġgrand": 2321,
      "Ġwind": 2322,
      "Ġentertainment": 2323,
      "iod": 2324,
      "Ġappears": 2325,
      "Ġsus": 2326,
      "Ġabove": 2327,
      "na": 2328,
      "Ġsets": 2329,
      "Ġhaven": 2330,
      "Ġenjoyable": 2331,
      "Ġsoundtrack": 2332,
      "Ġcomic": 2333,
      "Ġappreci": 2334,
      "Ġeasily": 2335,
      "off": 2336,
      "Ġpaul": 2337,
      "Ġaspect": 2338,
      "Ġpost": 2339,
      "af": 2340,
      "Ġwhether": 2341,
      "Ġ80": 2342,
      "Ġmaterial": 2343,
      "Ġtrou": 2344,
      "Ġdoubt": 2345,
      "sw": 2346,
      "arely": 2347,
      "Ġgiving": 2348,
      "Ġbunch": 2349,
      "Ġsupporting": 2350,
      "oun": 2351,
      "Ġvisual": 2352,
      "path": 2353,
      "mal": 2354,
      "Ġfalls": 2355,
      "Ġvan": 2356,
      "ices": 2357,
      "Ġfeature": 2358,
      "Ġfree": 2359,
      "Ġcap": 2360,
      "ike": 2361,
      "Ġways": 2362,
      "Ġsexual": 2363,
      "Ġfre": 2364,
      "Ġneeds": 2365,
      "ension": 2366,
      "lin": 2367,
      "Ġlots": 2368,
      "Ġflaw": 2369,
      "ering": 2370,
      "Ġmoving": 2371,
      "Ġtrain": 2372,
      "Ġsurprised": 2373,
      "ser": 2374,
      "Ġsurv": 2375,
      "Ġfive": 2376,
      "Ġtried": 2377,
      "Ġshowing": 2378,
      "ram": 2379,
      "Ġwithin": 2380,
      "Ġadult": 2381,
      "Ġslight": 2382,
      "Ġmessage": 2383,
      "Ġunlike": 2384,
      "Ġtwist": 2385,
      "work": 2386,
      "Ġattack": 2387,
      "Ġvictim": 2388,
      "Ġfilmed": 2389,
      "Ġperiod": 2390,
      "Ġaccept": 2391,
      "Ġeasy": 2392,
      "Ġtheater": 2393,
      "asc": 2394,
      "Ġsister": 2395,
      "Ġ197": 2396,
      "Ġparents": 2397,
      "Ġwater": 2398,
      "sem": 2399,
      "rated": 2400,
      "Ġexist": 2401,
      "Ġtheme": 2402,
      "Ġdu": 2403,
      "Ġstoryline": 2404,
      "Ġrelease": 2405,
      "Ġbuy": 2406,
      "view": 2407,
      "Ġcry": 2408,
      "Ġaff": 2409,
      "Ġreve": 2410,
      "Ġsetting": 2411,
      "Ġadapt": 2412,
      "ressed": 2413,
      "Ġfire": 2414,
      "Ġsuperb": 2415,
      "Ġthriller": 2416,
      "Ġlarge": 2417,
      "ening": 2418,
      "Ġpersonal": 2419,
      "'.": 2420,
      "Ġsugg": 2421,
      "aught": 2422,
      "Ġsuggest": 2423,
      "Ġactual": 2424,
      "Ġtruth": 2425,
      "Ġmatch": 2426,
      "Ġpark": 2427,
      "Ġcomments": 2428,
      "Ġ198": 2429,
      "Ġlady": 2430,
      "Ġinno": 2431,
      "Ġvamp": 2432,
      "Ġnamed": 2433,
      "Ġgeorge": 2434,
      "Ġultim": 2435,
      "Ġham": 2436,
      "ental": 2437,
      "Ġcomb": 2438,
      "oose": 2439,
      "ope": 2440,
      "Ġviewers": 2441,
      "of": 2442,
      "ution": 2443,
      "Ġmonster": 2444,
      "dden": 2445,
      "Ġworking": 2446,
      "',": 2447,
      "Ġusing": 2448,
      "Ġkept": 2449,
      "Ġfeels": 2450,
      "Ġhom": 2451,
      "Ġinsp": 2452,
      "Ġwait": 2453,
      "Ġediting": 2454,
      "Ġelements": 2455,
      "fficult": 2456,
      "Ġmeans": 2457,
      "Ġsoc": 2458,
      "Ġtale": 2459,
      "atter": 2460,
      "asy": 2461,
      "Ġital": 2462,
      "Ġstri": 2463,
      "Ġgeneral": 2464,
      "Ġflash": 2465,
      "Ġpoints": 2466,
      "Ġnearly": 2467,
      "Ġrichard": 2468,
      "Ġgreatest": 2469,
      "Ġhear": 2470,
      "Ġdifficult": 2471,
      "Ġtypical": 2472,
      "Ġviewing": 2473,
      "!)": 2474,
      "Ġherself": 2475,
      "Ġoscar": 2476,
      "Ġmc": 2477,
      "Ġfamous": 2478,
      "Ġdecided": 2479,
      "Ġdumb": 2480,
      "Ġfantastic": 2481,
      "gic": 2482,
      "iff": 2483,
      "Ġyork": 2484,
      "Ġteach": 2485,
      "Ġgone": 2486,
      "bers": 2487,
      "!!!!": 2488,
      "ceed": 2489,
      "iters": 2490,
      "Ġfront": 2491,
      "Ġweird": 2492,
      "there": 2493,
      "ially": 2494,
      "Ġlim": 2495,
      "ppy": 2496,
      "Ġoper": 2497,
      "Ġden": 2498,
      "ara": 2499,
      "iest": 2500,
      "Ġav": 2501,
      "Ġbrought": 2502,
      "Ġshame": 2503,
      "db": 2504,
      "imin": 2505,
      "Ġbelievable": 2506,
      "verage": 2507,
      "Ġrealistic": 2508,
      "Ġbegins": 2509,
      "Ġiss": 2510,
      "Ġband": 2511,
      "Ġintrodu": 2512,
      "Ġmix": 2513,
      "Ġadvent": 2514,
      "Ġfly": 2515,
      "while": 2516,
      "Ġsens": 2517,
      "Ġbusiness": 2518,
      "Ġver": 2519,
      "Ġpure": 2520,
      "phere": 2521,
      "Ġproject": 2522,
      "Ġreviews": 2523,
      "Ġleads": 2524,
      "omp": 2525,
      "urt": 2526,
      "Ġhall": 2527,
      "Ġanimation": 2528,
      "Ġcrime": 2529,
      "Ġutter": 2530,
      "Ġcal": 2531,
      "Ġsudden": 2532,
      "Ġjul": 2533,
      "Ġmeaning": 2534,
      "Ġthird": 2535,
      "Ġimagine": 2536,
      "Ġcatch": 2537,
      "str": 2538,
      "esy": 2539,
      "Ġsomehow": 2540,
      "Ġconne": 2541,
      "Ġprofess": 2542,
      "Ġfigure": 2543,
      "Ġsorry": 2544,
      "fer": 2545,
      "Ġmystery": 2546,
      "Ġbackground": 2547,
      "more": 2548,
      "time": 2549,
      "set": 2550,
      "piece": 2551,
      "aling": 2552,
      "Ġauth": 2553,
      "atever": 2554,
      "Ġsequences": 2555,
      "Ġcrew": 2556,
      "Ġpremise": 2557,
      "Ġamerica": 2558,
      "Ġdeliver": 2559,
      "omin": 2560,
      "Ġclim": 2561,
      "Ġatmosphere": 2562,
      "Ġjim": 2563,
      "Ġrad": 2564,
      "Ġeventually": 2565,
      "ges": 2566,
      "Ġexpected": 2567,
      "Ġparticular": 2568,
      "Ġaust": 2569,
      "Ġlang": 2570,
      "with": 2571,
      "Ġlame": 2572,
      "Ġstun": 2573,
      "ula": 2574,
      "Ġimdb": 2575,
      "Ġlee": 2576,
      "Ġisland": 2577,
      "Ġange": 2578,
      "Ġ...": 2579,
      "cious": 2580,
      "Ġexe": 2581,
      "Ġsituation": 2582,
      "Ġdoctor": 2583,
      "Ġsurprise": 2584,
      "Ġpeter": 2585,
      "Ġexpress": 2586,
      "Ġwild": 2587,
      "ius": 2588,
      "ze": 2589,
      "Ġwall": 2590,
      "Ġkilling": 2591,
      "Ġpoorly": 2592,
      "do": 2593,
      "Ġtar": 2594,
      "Ġresp": 2595,
      "fi": 2596,
      "Ġmass": 2597,
      "Ġindeed": 2598,
      "ov": 2599,
      "Âħ": 2600,
      "ana": 2601,
      "ively": 2602,
      "lu": 2603,
      "Ġtast": 2604,
      "Ġprison": 2605,
      "Ġ199": 2606,
      "min": 2607,
      "Ġstere": 2608,
      "lfriend": 2609,
      "Ġsociety": 2610,
      "Ġpublic": 2611,
      "Ġgre": 2612,
      "Ġgay": 2613,
      "ously": 2614,
      "Ġrefer": 2615,
      "een": 2616,
      "Ġclever": 2617,
      "bor": 2618,
      "Ġwit": 2619,
      "Ġprin": 2620,
      "Ġmid": 2621,
      "ned": 2622,
      "Ġmale": 2623,
      "ogn": 2624,
      "Ġaverage": 2625,
      "Ġhy": 2626,
      "Ġliter": 2627,
      "Ġbother": 2628,
      "Ġrand": 2629,
      "Ġleaves": 2630,
      "?\"": 2631,
      "Ġfootage": 2632,
      "friend": 2633,
      "Ġdance": 2634,
      "Ġappro": 2635,
      "iences": 2636,
      "Ġstage": 2637,
      "Ġda": 2638,
      "wor": 2639,
      "Ġjer": 2640,
      "Ġbecame": 2641,
      "Ġemotional": 2642,
      "icks": 2643,
      "Ġneeded": 2644,
      "Ġboys": 2645,
      "lier": 2646,
      "Ġforced": 2647,
      "ob": 2648,
      "Ġinte": 2649,
      "Ġsick": 2650,
      "Ġbored": 2651,
      "Ġmemorable": 2652,
      "Ġfurther": 2653,
      "Ġminute": 2654,
      "Ġcredits": 2655,
      "Ġbattle": 2656,
      "Ġstrugg": 2657,
      "Ġcopy": 2658,
      "look": 2659,
      "inc": 2660,
      "Ġallow": 2661,
      "Ġcostum": 2662,
      "ites": 2663,
      "ager": 2664,
      "mar": 2665,
      "par": 2666,
      "Ġeur": 2667,
      "Ġjour": 2668,
      "Ġotherwise": 2669,
      "Ġcommun": 2670,
      "Ġlos": 2671,
      "Ġwrite": 2672,
      "Ġwhatever": 2673,
      "Ġromance": 2674,
      "mov": 2675,
      "Ġpu": 2676,
      "Ġnote": 2677,
      "Ġnature": 2678,
      "rific": 2679,
      "Ġheav": 2680,
      "Ġfeatures": 2681,
      "Ġemotion": 2682,
      "iel": 2683,
      "Ġreading": 2684,
      "Ġinterested": 2685,
      "Ġtotal": 2686,
      "Ġest": 2687,
      "onic": 2688,
      "Ġbed": 2689,
      "Ġbeat": 2690,
      "Ġmach": 2691,
      "Ġmeets": 2692,
      "por": 2693,
      "Ġ$": 2694,
      "Ġcheesy": 2695,
      "Ġperfectly": 2696,
      "Ġunique": 2697,
      "cers": 2698,
      "Ġfu": 2699,
      "Ġscreenplay": 2700,
      "Ġpossibly": 2701,
      "pend": 2702,
      "Ġbeauty": 2703,
      "Ġrevol": 2704,
      "Ġsleep": 2705,
      "ha": 2706,
      "Ġcir": 2707,
      "Ġbull": 2708,
      "Ġlaughs": 2709,
      "Ġstereot": 2710,
      "zz": 2711,
      "Ġcollect": 2712,
      "Ġquickly": 2713,
      "thy": 2714,
      "agon": 2715,
      "Ġmeant": 2716,
      "Ġvillain": 2717,
      "Ġgirlfriend": 2718,
      "els": 2719,
      "Ġfran": 2720,
      "Ġmasterpiece": 2721,
      "Ġspirit": 2722,
      "ett": 2723,
      "Ġenc": 2724,
      "Ġbadly": 2725,
      "Ġkeeps": 2726,
      "boy": 2727,
      "rent": 2728,
      "Ġach": 2729,
      "Ġdiscover": 2730,
      "iliar": 2731,
      "Ġcolle": 2732,
      "Ġtowards": 2733,
      "Ġforward": 2734,
      "Ġhistor": 2735,
      "Ġdisney": 2736,
      "Ġextra": 2737,
      "ips": 2738,
      "Ġsounds": 2739,
      "olf": 2740,
      "Ġearlier": 2741,
      "ived": 2742,
      "Ġinside": 2743,
      "hood": 2744,
      "fr": 2745,
      "Ġdisturb": 2746,
      "gs": 2747,
      "ye": 2748,
      "isf": 2749,
      "Ġplus": 2750,
      "Ġconcept": 2751,
      "Ġhol": 2752,
      "Ġmod": 2753,
      "Ġjapanese": 2754,
      "ries": 2755,
      "action": 2756,
      "Ġexplo": 2757,
      "Ġincredibly": 2758,
      "Ġworked": 2759,
      "Ġbaby": 2760,
      "Ġrepe": 2761,
      "lie": 2762,
      "Ġfasc": 2763,
      "cted": 2764,
      "Ġamount": 2765,
      "men": 2766,
      "Ġrealize": 2767,
      "Ġbrain": 2768,
      "Ġscream": 2769,
      "Ġund": 2770,
      "Ġpopular": 2771,
      "Ġansw": 2772,
      "Ġoccas": 2773,
      "even": 2774,
      "ient": 2775,
      "Ġokay": 2776,
      "rest": 2777,
      "Ġcru": 2778,
      "Ġdoll": 2779,
      "Ġvarious": 2780,
      "Ġcond": 2781,
      "Ġwhom": 2782,
      "Ġflat": 2783,
      "Ġstat": 2784,
      "Ġhair": 2785,
      "Ġpurp": 2786,
      "kn": 2787,
      "Ġconv": 2788,
      "Ġble": 2789,
      "Ġwriters": 2790,
      "Ġphil": 2791,
      "Ġagree": 2792,
      "jo": 2793,
      "others": 2794,
      "Ġpowerful": 2795,
      "Ġrecogn": 2796,
      "Ġ70": 2797,
      "Ġscott": 2798,
      "Ġdevelopment": 2799,
      "Ġcartoon": 2800,
      "?)": 2801,
      "Ġtrad": 2802,
      "pper": 2803,
      "Ġbrings": 2804,
      "Ġluck": 2805,
      "Ġolder": 2806,
      "aked": 2807,
      "mas": 2808,
      "Ġplain": 2809,
      "Ġdirectors": 2810,
      "Ġplenty": 2811,
      "Ġcrazy": 2812,
      "oc": 2813,
      "Ġthank": 2814,
      "Ġpal": 2815,
      "host": 2816,
      "Ġadmit": 2817,
      "Ġexecut": 2818,
      "Ġunless": 2819,
      "Ġtrash": 2820,
      "Ġscient": 2821,
      "here": 2822,
      "Ġacted": 2823,
      "Ġcreepy": 2824,
      "Ġdirecting": 2825,
      "Ġtrail": 2826,
      "gest": 2827,
      "rit": 2828,
      "vern": 2829,
      "belie": 2830,
      "Ġreasons": 2831,
      "just": 2832,
      "Ġ30": 2833,
      "cessary": 2834,
      "Ġsal": 2835,
      "Ġjoke": 2836,
      "\")": 2837,
      "Ġoffic": 2838,
      "Ġ195": 2839,
      "Ġfairly": 2840,
      "Ġfollowing": 2841,
      "aces": 2842,
      "ased": 2843,
      "Ġspent": 2844,
      "Ġident": 2845,
      "roy": 2846,
      "bb": 2847,
      "ero": 2848,
      "Ġball": 2849,
      "Ġinvest": 2850,
      "Ġess": 2851,
      "itty": 2852,
      "Ġlangu": 2853,
      "Ġfails": 2854,
      "Ġleading": 2855,
      "Ġdeserves": 2856,
      "ring": 2857,
      "Ġportrayed": 2858,
      "di": 2859,
      "Ġale": 2860,
      "ets": 2861,
      "Ġchann": 2862,
      "Ġdesign": 2863,
      "Ġattract": 2864,
      "Ġdramatic": 2865,
      "Ġnud": 2866,
      "Ġhun": 2867,
      "Ġwasted": 2868,
      "ths": 2869,
      "Ġphys": 2870,
      "Ġneg": 2871,
      "itted": 2872,
      "Ġgreen": 2873,
      "Ġoutside": 2874,
      "Ġattempts": 2875,
      "Ġghost": 2876,
      "that": 2877,
      "arring": 2878,
      "Ġcas": 2879,
      "Ġ90": 2880,
      "Ġsand": 2881,
      "rupt": 2882,
      "arre": 2883,
      "Ġideas": 2884,
      "Ġmanages": 2885,
      "Ġjoe": 2886,
      "Ġexpecting": 2887,
      "att": 2888,
      "Ġrecord": 2889,
      "Ġfit": 2890,
      "Ġsweet": 2891,
      "acing": 2892,
      "Ġpolitical": 2893,
      "don": 2894,
      "Ġprop": 2895,
      "Ġcreate": 2896,
      "Ġparty": 2897,
      "gi": 2898,
      "Ġrecently": 2899,
      "Ġtur": 2900,
      "Ġber": 2901,
      "Ġmissing": 2902,
      "Ġfighting": 2903,
      "Ġ`": 2904,
      "Ġ!": 2905,
      "Ġimm": 2906,
      "Ġsuck": 2907,
      "ivid": 2908,
      "Ġmembers": 2909,
      "Ġcolor": 2910,
      "Ġfamiliar": 2911,
      "Ġsocial": 2912,
      "Ġescape": 2913,
      "ai": 2914,
      "Ġtravel": 2915,
      "Ġexplain": 2916,
      "Ġfat": 2917,
      "Ġcaught": 2918,
      "Ġended": 2919,
      "Ġsympath": 2920,
      "Ġsubtle": 2921,
      "Ġhardly": 2922,
      "Ġmir": 2923,
      "Ġhitch": 2924,
      "Ġruss": 2925,
      "ills": 2926,
      "Ġrequ": 2927,
      "ague": 2928,
      "Ġ:": 2929,
      "inary": 2930,
      "Ġdanger": 2931,
      "Ġlaughing": 2932,
      "medi": 2933,
      "Ġcommon": 2934,
      "Ġpie": 2935,
      "Ġamb": 2936,
      "Ġera": 2937,
      "resh": 2938,
      "Ġfunn": 2939,
      "Ġrelig": 2940,
      "Ġpositive": 2941,
      "Ġaccident": 2942,
      "war": 2943,
      "Ġcross": 2944,
      "Ġroll": 2945,
      "Ġpotential": 2946,
      "imp": 2947,
      "Ġfilmmakers": 2948,
      "arrass": 2949,
      "Ġce": 2950,
      "Ġregard": 2951,
      "Ġanti": 2952,
      "Ġachie": 2953,
      "Ġtelling": 2954,
      "urs": 2955,
      "Ġremake": 2956,
      "Ġtalented": 2957,
      "Ġnudity": 2958,
      "Ġbiz": 2959,
      "Ġpace": 2960,
      "Ġbrief": 2961,
      "Ġimmedi": 2962,
      "ding": 2963,
      "Ġsearch": 2964,
      "ology": 2965,
      "some": 2966,
      "Ġimpro": 2967,
      "izing": 2968,
      "Ġembarrass": 2969,
      "Ġfest": 2970,
      "Ġfantasy": 2971,
      "uct": 2972,
      "ades": 2973,
      "Ġsun": 2974,
      "iny": 2975,
      "Ġcold": 2976,
      "Ġdesper": 2977,
      "Ġterror": 2978,
      "Ġzombie": 2979,
      "Ġcute": 2980,
      "Ġsto": 2981,
      "Ġstate": 2982,
      "Ġstick": 2983,
      "Ġmissed": 2984,
      "la": 2985,
      "Ġtort": 2986,
      "Ġburn": 2987,
      "Ġreach": 2988,
      "emy": 2989,
      "Ġclaim": 2990,
      "Ġintri": 2991,
      "Ġcasting": 2992,
      "Ġcompany": 2993,
      "row": 2994,
      "Ġsuffer": 2995,
      "Ġroad": 2996,
      "Ġcreated": 2997,
      "iced": 2998,
      "Ġarri": 2999,
      "Ġcomplex": 3000,
      "Ġitalian": 3001,
      "Ġcredit": 3002,
      "mon": 3003,
      "over": 3004,
      "Ġ(\"": 3005,
      "cast": 3006,
      "Ġfear": 3007,
      "Ġformer": 3008,
      "Ġles": 3009,
      "Ġwaiting": 3010,
      "Ġdin": 3011,
      "Ġdad": 3012,
      "Ġincredible": 3013,
      "istry": 3014,
      "Ġapproach": 3015,
      "Ġmarried": 3016,
      "Ġstereotyp": 3017,
      "come": 3018,
      "sters": 3019,
      "Ġalien": 3020,
      "Ġdied": 3021,
      "when": 3022,
      "lusion": 3023,
      "Ġgri": 3024,
      "Ġstore": 3025,
      "venge": 3026,
      "Ġclos": 3027,
      "rap": 3028,
      "acy": 3029,
      "Ġslightly": 3030,
      "ev": 3031,
      "gen": 3032,
      "iers": 3033,
      "Ġbroad": 3034,
      "Ġforgot": 3035,
      "rage": 3036,
      "Ġeurope": 3037,
      "Ġlab": 3038,
      "Ġ15": 3039,
      "aging": 3040,
      "eth": 3041,
      "Ġrece": 3042,
      "Ġintern": 3043,
      "Ġmentioned": 3044,
      "edy": 3045,
      "Ġforce": 3046,
      "Ġunbelie": 3047,
      "000": 3048,
      "Ġdraw": 3049,
      "Ġchem": 3050,
      "Ġuses": 3051,
      "uc": 3052,
      "Ġtension": 3053,
      "Ġdelight": 3054,
      "Ġgenu": 3055,
      "Ġpointless": 3056,
      "Ġdecides": 3057,
      "berg": 3058,
      "Ġscience": 3059,
      "esome": 3060,
      "ibility": 3061,
      "Ġconvincing": 3062,
      "Ġentirely": 3063,
      "Ġsees": 3064,
      "Ġfol": 3065,
      "ask": 3066,
      "Ġram": 3067,
      "Ġcentury": 3068,
      "lict": 3069,
      "ron": 3070,
      "Ġwrote": 3071,
      "Ġproduced": 3072,
      "gress": 3073,
      "rel": 3074,
      "ossible": 3075,
      "Ġur": 3076,
      "Ġaccent": 3077,
      "che": 3078,
      "Ġvalue": 3079,
      "uses": 3080,
      "Ġfollows": 3081,
      "Ġidi": 3082,
      "Ġconsidering": 3083,
      "Ġgenuine": 3084,
      "Ġportrayal": 3085,
      "Ġmere": 3086,
      "itation": 3087,
      "Ġrap": 3088,
      "aking": 3089,
      "Ġappreciate": 3090,
      "Ġsadly": 3091,
      "Ġted": 3092,
      "Ġremark": 3093,
      "Ġcontr": 3094,
      "Ġtrack": 3095,
      "Ġrate": 3096,
      "Ġgovern": 3097,
      "gram": 3098,
      "Ġlanguage": 3099,
      "movie": 3100,
      "Ġsolid": 3101,
      "Ġtrouble": 3102,
      "Ġneither": 3103,
      "Ġoffice": 3104,
      "Ġground": 3105,
      "Ġchoice": 3106,
      "Ġbizarre": 3107,
      "Ġwer": 3108,
      "Ġran": 3109,
      "Ġcomput": 3110,
      "Ġmoves": 3111,
      "ashion": 3112,
      "Ġsuddenly": 3113,
      "Ġcompared": 3114,
      "Ġyounger": 3115,
      "Ġsqu": 3116,
      "Ġweek": 3117,
      "Ġbiggest": 3118,
      "Ġglad": 3119,
      "Ġbomb": 3120,
      "Ġgarb": 3121,
      "Ġlege": 3122,
      "Ġ193": 3123,
      "Ġcritic": 3124,
      "Ġtest": 3125,
      "ened": 3126,
      "Ġimages": 3127,
      "Ġcollege": 3128,
      "iment": 3129,
      "uster": 3130,
      "Ġbrothers": 3131,
      "Ġjane": 3132,
      "Ġdetect": 3133,
      "Ġsuspect": 3134,
      "irty": 3135,
      "Ġdepict": 3136,
      "Ġsituations": 3137,
      "Ġdancing": 3138,
      "Ġpen": 3139,
      "Ġrecommended": 3140,
      "idden": 3141,
      "Ġintelligent": 3142,
      "Ġ196": 3143,
      "ches": 3144,
      "sequ": 3145,
      "ilt": 3146,
      "Ġflo": 3147,
      "Ġexciting": 3148,
      "isingly": 3149,
      "Ġamusing": 3150,
      "Ġlonger": 3151,
      "Ġalive": 3152,
      "Ġsuccessful": 3153,
      "Ġbrut": 3154,
      "Ġgenius": 3155,
      "Ġhumour": 3156,
      "Ġsatisf": 3157,
      "sey": 3158,
      "Ġcompet": 3159,
      "Ġproducers": 3160,
      "Ġchannel": 3161,
      "Ġtough": 3162,
      "Ġbreat": 3163,
      "Ġhen": 3164,
      "Ġjump": 3165,
      "Ġviolent": 3166,
      "Ġawesome": 3167,
      "Ġspend": 3168,
      "Ġfilled": 3169,
      "Ġray": 3170,
      "Ġmood": 3171,
      "Ġfort": 3172,
      "ndon": 3173,
      "ille": 3174,
      "Ġdecide": 3175,
      "Ġstudio": 3176,
      "Ġultimately": 3177,
      "standing": 3178,
      "Ġcontinu": 3179,
      "Ġpathetic": 3180,
      "Ġpurpose": 3181,
      "Ġpow": 3182,
      "Ġprogram": 3183,
      "Ġbes": 3184,
      "oph": 3185,
      "Ġfinish": 3186,
      "Ġrecent": 3187,
      "Ġwest": 3188,
      "Ġeffective": 3189,
      "she": 3190,
      "Ġcause": 3191,
      "Ġarg": 3192,
      "Ġkills": 3193,
      "ribly": 3194,
      "Ġproduct": 3195,
      "Ġjew": 3196,
      "Ġbott": 3197,
      "Ġquestions": 3198,
      "ham": 3199,
      "Ġsix": 3200,
      "Ġmanner": 3201,
      "Ġcontrol": 3202,
      "Ġdepth": 3203,
      "ki": 3204,
      "Ġlikes": 3205,
      "Ġchristmas": 3206,
      "Ġinform": 3207,
      "Ġdisg": 3208,
      "oh": 3209,
      "Ġfake": 3210,
      "Ġinterview": 3211,
      "Ġweren": 3212,
      "ta": 3213,
      "Ġsmo": 3214,
      "orm": 3215,
      "known": 3216,
      "Ġii": 3217,
      "Ġgarbage": 3218,
      "Ġfascin": 3219,
      "room": 3220,
      "appe": 3221,
      "Ġimpressive": 3222,
      "Ġspot": 3223,
      "ship": 3224,
      "Ġvalues": 3225,
      "Ġchanged": 3226,
      "itary": 3227,
      "Ġcarry": 3228,
      "Ġcrimin": 3229,
      "Ġtrip": 3230,
      "Ġconcern": 3231,
      "Ġtaste": 3232,
      "Ġfred": 3233,
      "Ġrepres": 3234,
      "die": 3235,
      "Ġcloth": 3236,
      "Ġfaith": 3237,
      "ization": 3238,
      "Ġimpossible": 3239,
      "vent": 3240,
      "Ġmal": 3241,
      "Ġbre": 3242,
      "Ġcompe": 3243,
      "Ġshowed": 3244,
      "Ġspect": 3245,
      "Ġbarely": 3246,
      "ston": 3247,
      "Ġbond": 3248,
      "Ġsouth": 3249,
      "xic": 3250,
      "Ġkick": 3251,
      "Ġbasic": 3252,
      "house": 3253,
      "Ġdoor": 3254,
      "Ġ50": 3255,
      "Ġopportun": 3256,
      "inger": 3257,
      "arily": 3258,
      "Ġinvolving": 3259,
      "Ġamate": 3260,
      "Ġminor": 3261,
      "Ġrevenge": 3262,
      "Ġculture": 3263,
      "Ġhang": 3264,
      "anda": 3265,
      "Ġsinging": 3266,
      "ensive": 3267,
      "ders": 3268,
      "ste": 3269,
      "Ġsuit": 3270,
      "Ġvampire": 3271,
      "Ġavail": 3272,
      "Ġimmediately": 3273,
      "Ġassum": 3274,
      "Ġmagn": 3275,
      "Ġjourney": 3276,
      "une": 3277,
      "Ġsmart": 3278,
      "Ġbi": 3279,
      "asher": 3280,
      "Ġfailed": 3281,
      "wart": 3282,
      "Ġbooks": 3283,
      "ee": 3284,
      "Ġhos": 3285,
      "Ġfool": 3286,
      "Ġrepl": 3287,
      "pro": 3288,
      "ological": 3289,
      "direct": 3290,
      "Ġpack": 3291,
      "Ġchemistry": 3292,
      "good": 3293,
      "rey": 3294,
      "Ġrede": 3295,
      "Ġaffect": 3296,
      "Ġaudiences": 3297,
      "Ġleaving": 3298,
      "Ġdisturbing": 3299,
      "Ġafric": 3300,
      "Ġconclusion": 3301,
      "Ġbought": 3302,
      "Ġporn": 3303,
      "Ġpers": 3304,
      "iding": 3305,
      "Ġindian": 3306,
      "Ġshooting": 3307,
      "Ġgem": 3308,
      "Ġaside": 3309,
      "Ġleg": 3310,
      "Ġblue": 3311,
      "rist": 3312,
      "Ġcand": 3313,
      "Ġwee": 3314,
      "Ġunin": 3315,
      "Ġ194": 3316,
      "Ġconsidered": 3317,
      "outh": 3318,
      "urd": 3319,
      "Ġability": 3320,
      "Ġnatural": 3321,
      "Ġgag": 3322,
      "Ġcontri": 3323,
      "Ġsoldiers": 3324,
      "Ġpract": 3325,
      "ifully": 3326,
      "Ġaccur": 3327,
      "Ġnotice": 3328,
      "anna": 3329,
      "Ġfiction": 3330,
      "Ġship": 3331,
      "Ġlif": 3332,
      "Ġsomewhere": 3333,
      "Ġreveal": 3334,
      "Ġalex": 3335,
      "cre": 3336,
      "Ġsuc": 3337,
      "cock": 3338,
      "Ġpictures": 3339,
      "Ġexception": 3340,
      "Ġthanks": 3341,
      "Ġadded": 3342,
      "Ġdrag": 3343,
      "Ġthrow": 3344,
      "Ġsher": 3345,
      "Ġmagic": 3346,
      "ified": 3347,
      "Ġrandom": 3348,
      "fort": 3349,
      "Ġarmy": 3350,
      "aper": 3351,
      "Ġthinks": 3352,
      "Ġsucceed": 3353,
      "Ġsitting": 3354,
      "Ġwal": 3355,
      "Ġadventure": 3356,
      "yl": 3357,
      "Ġaddition": 3358,
      "Ġfavour": 3359,
      "round": 3360,
      "oud": 3361,
      "Ġaward": 3362,
      "Ġruns": 3363,
      "Ġpassion": 3364,
      "Ġdemon": 3365,
      "ining": 3366,
      "Ġmac": 3367,
      "***": 3368,
      "Ġimpression": 3369,
      "uce": 3370,
      "Ġfell": 3371,
      "idence": 3372,
      "Ġtone": 3373,
      "Ġmary": 3374,
      "Ġclub": 3375,
      "Ġaffair": 3376,
      "Ġlegend": 3377,
      "Ġchase": 3378,
      "Ġsoul": 3379,
      "Ġheavy": 3380,
      "Ġunex": 3381,
      "Ġissues": 3382,
      "Ġinvestig": 3383,
      "Ġstunning": 3384,
      "Ġfox": 3385,
      "Ġsar": 3386,
      "Ġfresh": 3387,
      "ene": 3388,
      "Ġindust": 3389,
      "ging": 3390,
      "Ġloud": 3391,
      "cif": 3392,
      "Ġappeal": 3393,
      "gl": 3394,
      "Ġfashion": 3395,
      "rian": 3396,
      "Ġbottom": 3397,
      "Ġcrow": 3398,
      "Ġneigh": 3399,
      "Ġnobody": 3400,
      "making": 3401,
      "Ġredeem": 3402,
      "Ġhaun": 3403,
      "unny": 3404,
      "Ġ100": 3405,
      "Ġlikely": 3406,
      "Ġboss": 3407,
      "Ġstarring": 3408,
      "Ġprep": 3409,
      "izes": 3410,
      "oop": 3411,
      "Ġgovernment": 3412,
      "Ġcomputer": 3413,
      "ios": 3414,
      "rick": 3415,
      "Ġlondon": 3416,
      "Ġtwists": 3417,
      "Ġnowhere": 3418,
      "iring": 3419,
      "Ġinsult": 3420,
      "Ġhost": 3421,
      "Ġremains": 3422,
      "Ġsurprisingly": 3423,
      "Ġmysterious": 3424,
      "Ġstan": 3425,
      "Ġjoy": 3426,
      "Ġauthor": 3427,
      "ify": 3428,
      "Ġslasher": 3429,
      "Ġhonestly": 3430,
      "tw": 3431,
      "lessly": 3432,
      "Ġseg": 3433,
      "Ġdel": 3434,
      "Ġserv": 3435,
      "Ġbeautifully": 3436,
      "Ġappearance": 3437,
      "Ġdestroy": 3438,
      "Ġmult": 3439,
      "Ġcharles": 3440,
      "Ġamateur": 3441,
      "face": 3442,
      "Ġkey": 3443,
      "Ġsexy": 3444,
      "Ġmillion": 3445,
      "Ġavailable": 3446,
      "Ġgraph": 3447,
      "Ġobs": 3448,
      "Ġpersonally": 3449,
      "Ġliterally": 3450,
      "bud": 3451,
      "Ġsell": 3452,
      "Ġedge": 3453,
      "Ġwitness": 3454,
      "hen": 3455,
      "Ġuns": 3456,
      "Ġterms": 3457,
      "Ġnormal": 3458,
      "Ġrespons": 3459,
      "Ġobsess": 3460,
      "Ġx": 3461,
      "Ġharr": 3462,
      "Ġanimated": 3463,
      "Ġscenery": 3464,
      "Ġstandard": 3465,
      "vert": 3466,
      "irth": 3467,
      "Ġsmith": 3468,
      "aining": 3469,
      "Ġcinematic": 3470,
      "ford": 3471,
      "Ġride": 3472,
      "Ġpresence": 3473,
      "Ġboyfriend": 3474,
      "Ġflashback": 3475,
      "ium": 3476,
      "icide": 3477,
      "Ġjones": 3478,
      "Ġsilent": 3479,
      "Ġphotography": 3480,
      "Ġgenerally": 3481,
      "Ġutterly": 3482,
      "Ġhosp": 3483,
      "Ġdro": 3484,
      "Ġconflict": 3485,
      "Ġdrive": 3486,
      "ken": 3487,
      "Ġthor": 3488,
      "Ġyeah": 3489,
      "Ġbob": 3490,
      "Ġplanet": 3491,
      "Ġmanaged": 3492,
      "han": 3493,
      "Ġintrigu": 3494,
      "cra": 3495,
      "mm": 3496,
      "ura": 3497,
      "riage": 3498,
      "Ġterrific": 3499,
      "Ġcharming": 3500,
      "lect": 3501,
      "Ġrare": 3502,
      "Ġconstantly": 3503,
      "Ġthreat": 3504,
      "Ġadaptation": 3505,
      "Ġign": 3506,
      "Ġcell": 3507,
      "Ġmilitary": 3508,
      "Ġdescrib": 3509,
      "Ġaustral": 3510,
      "Ġthrown": 3511,
      "Ġinflu": 3512,
      "Ġchanges": 3513,
      "Ġlad": 3514,
      "stem": 3515,
      "verse": 3516,
      "Ġchall": 3517,
      "Ġemotions": 3518,
      "played": 3519,
      "Ġlaughable": 3520,
      "Ġsuppose": 3521,
      "Ġclimax": 3522,
      "hor": 3523,
      "Ġ****": 3524,
      "gar": 3525,
      "itions": 3526,
      "Ġnames": 3527,
      "Ġdisappointing": 3528,
      "cuss": 3529,
      "Ġdetails": 3530,
      "Ġhistorical": 3531,
      "Ġdar": 3532,
      "Ġcha": 3533,
      "Ġnarrative": 3534,
      "Ġlovely": 3535,
      "Ġdrink": 3536,
      "Ġcow": 3537,
      "Ġinit": 3538,
      "Ġcompar": 3539,
      "Ġindivid": 3540,
      "Ġparis": 3541,
      "kin": 3542,
      "opher": 3543,
      "Ġeverybody": 3544,
      "down": 3545,
      "Ġtor": 3546,
      "Ġoffer": 3547,
      "after": 3548,
      "Ġloves": 3549,
      "Ġnews": 3550,
      "they": 3551,
      "Ġcommer": 3552,
      "ropri": 3553,
      "Ġbal": 3554,
      "Ġplaces": 3555,
      "Ġdiv": 3556,
      "yan": 3557,
      "Ġwitch": 3558,
      "Ġloose": 3559,
      "Ġcomedies": 3560,
      "Ġner": 3561,
      "Ġprotagon": 3562,
      "Ġinnocent": 3563,
      "Ġnaked": 3564,
      "Ġescap": 3565,
      "under": 3566,
      "Ġspl": 3567,
      "rid": 3568,
      "Ġpil": 3569,
      "star": 3570,
      "Ġscar": 3571,
      "Ġknowing": 3572,
      "Ġcostumes": 3573,
      "Ġpieces": 3574,
      "vey": 3575,
      "Ġtem": 3576,
      "theless": 3577,
      "Ġhurt": 3578,
      "Ġdate": 3579,
      "Ġpan": 3580,
      "Ġgiant": 3581,
      "itude": 3582,
      "Ġshar": 3583,
      "Ġabsurd": 3584,
      "Ġsystem": 3585,
      "Ġslowly": 3586,
      "Ġtradition": 3587,
      "ris": 3588,
      "Ġpainful": 3589,
      "Ġunbelievable": 3590,
      "Ġkar": 3591,
      "Ġtouching": 3592,
      "Ġproducer": 3593,
      "Ġintended": 3594,
      "Ġsurround": 3595,
      "Ġchur": 3596,
      "Ġsoft": 3597,
      "Ġcharm": 3598,
      "Ġarm": 3599,
      "Ġfilming": 3600,
      "Ġstands": 3601,
      "Ġbuilding": 3602,
      "field": 3603,
      "Ġbreath": 3604,
      "Ġciv": 3605,
      "esh": 3606,
      "Ġpresented": 3607,
      "Ġfestival": 3608,
      "night": 3609,
      "Ġfeelings": 3610,
      "Ġwalking": 3611,
      "board": 3612,
      "ares": 3613,
      "Ġcharlie": 3614,
      "Ġmedio": 3615,
      "Ġspoilers": 3616,
      "ability": 3617,
      "Ġrip": 3618,
      "ette": 3619,
      "Ġintense": 3620,
      "Ġputs": 3621,
      "Ġbarb": 3622,
      "Ġdetective": 3623,
      "Ġdies": 3624,
      "icated": 3625,
      "see": 3626,
      "Ġblock": 3627,
      "Ġthemes": 3628,
      "Ġdesert": 3629,
      "Ġpun": 3630,
      "aine": 3631,
      "Ġequally": 3632,
      "Ġthus": 3633,
      "Ġeast": 3634,
      "Ġarch": 3635,
      "Ġmoral": 3636,
      "Ġzombies": 3637,
      "Ġoutstanding": 3638,
      "ressing": 3639,
      "?!": 3640,
      "ander": 3641,
      "Ġhospital": 3642,
      "Ġindividual": 3643,
      "ented": 3644,
      "Ġrace": 3645,
      "Ġobject": 3646,
      "Ġstudent": 3647,
      "Ġlat": 3648,
      "Ġring": 3649,
      "Ġcentral": 3650,
      "Ġharry": 3651,
      "Ġfield": 3652,
      "Ġled": 3653,
      "Ġadam": 3654,
      "Ġencoun": 3655,
      "bol": 3656,
      "Ġfully": 3657,
      "orts": 3658,
      "Ġchristian": 3659,
      "Ġleng": 3660,
      ".....": 3661,
      "Ġmount": 3662,
      "Ġshakes": 3663,
      "Ġelement": 3664,
      "Ġmistake": 3665,
      "Ġhoping": 3666,
      "Ġcorrect": 3667,
      "life": 3668,
      "Ġaspects": 3669,
      "Ġexcuse": 3670,
      "Ġdisappointment": 3671,
      "Ġopera": 3672,
      "Ġnet": 3673,
      "Ġacts": 3674,
      "Ġexpectations": 3675,
      "Ġvictor": 3676,
      "Ġindepend": 3677,
      "Ġtired": 3678,
      "ano": 3679,
      "Ġmakers": 3680,
      "Ġhitchcock": 3681,
      "Ġfle": 3682,
      "although": 3683,
      "ched": 3684,
      "Ġcurrent": 3685,
      "win": 3686,
      "Ġrac": 3687,
      "Ġener": 3688,
      "Ġgrant": 3689,
      "Ġbehav": 3690,
      "Ġforever": 3691,
      "tit": 3692,
      "lla": 3693,
      "Ġsteve": 3694,
      "pret": 3695,
      "Ġjeff": 3696,
      "Ġ18": 3697,
      "Ġserial": 3698,
      "Ġgrace": 3699,
      "Ġchris": 3700,
      "Ġcommercial": 3701,
      "nat": 3702,
      "Ġash": 3703,
      "Ġrain": 3704,
      "Ġcontains": 3705,
      "vir": 3706,
      "Ġtony": 3707,
      "ploy": 3708,
      "Ġunivers": 3709,
      "Ġcritics": 3710,
      "Ġfascinating": 3711,
      "budget": 3712,
      "Ġnast": 3713,
      "Ġlau": 3714,
      "arsh": 3715,
      "aven": 3716,
      "watch": 3717,
      "Ġnumb": 3718,
      "Ġshall": 3719,
      "Ġtrust": 3720,
      "ples": 3721,
      "Ġdiscuss": 3722,
      "Ġcivil": 3723,
      "Ġdrunk": 3724,
      "Ġjean": 3725,
      "Ġ60": 3726,
      "Ġopportunity": 3727,
      "Ġchurch": 3728,
      "Ġwil": 3729,
      "oughly": 3730,
      "Ġproper": 3731,
      "Ġdefe": 3732,
      "ode": 3733,
      "Ġimage": 3734,
      "Ġsubst": 3735,
      "Ġradio": 3736,
      "Ġdisgust": 3737,
      "aus": 3738,
      "ored": 3739,
      "Ġjustice": 3740,
      "Ġmont": 3741,
      "Ġban": 3742,
      "entially": 3743,
      "Ġfellow": 3744,
      "Ġsurely": 3745,
      "Ġvirt": 3746,
      "Ġcontent": 3747,
      "Ġahead": 3748,
      "tr": 3749,
      "uit": 3750,
      "Ġresem": 3751,
      "iously": 3752,
      "Ġmi": 3753,
      "lled": 3754,
      "Ġfolks": 3755,
      "Ġsight": 3756,
      "Ġdread": 3757,
      "Ġimpl": 3758,
      "Ġaut": 3759,
      "Ġder": 3760,
      "Ġbruce": 3761,
      "Ġfaces": 3762,
      "Ġlaughed": 3763,
      "Ġ40": 3764,
      "Ġsummer": 3765,
      "Ġmelod": 3766,
      "Ġug": 3767,
      "istent": 3768,
      "bi": 3769,
      "Ġpra": 3770,
      "Ġeat": 3771,
      "Ġmotion": 3772,
      "Ġblond": 3773,
      "Ġhappening": 3774,
      "Ġstudents": 3775,
      "Ġmartin": 3776,
      "nda": 3777,
      "Ġgrade": 3778,
      "Ġstock": 3779,
      "Ġconfusing": 3780,
      "Ġing": 3781,
      "Ġhook": 3782,
      "Ġnu": 3783,
      "Ġqual": 3784,
      "Ġdisc": 3785,
      "Ġimpact": 3786,
      "Ġbesides": 3787,
      "Ġinclude": 3788,
      "Ġdreams": 3789,
      "Ġdisaster": 3790,
      "Ġstewart": 3791,
      "Ġprim": 3792,
      "onna": 3793,
      "Ġju": 3794,
      "irt": 3795,
      "Ġconfused": 3796,
      "iday": 3797,
      "Ġclean": 3798,
      "Ġdouble": 3799,
      "mark": 3800,
      "Ġboo": 3801,
      "Ġround": 3802,
      "writer": 3803,
      "aint": 3804,
      "Ġprocess": 3805,
      "Ġirrit": 3806,
      "Ġoppos": 3807,
      "Ġlived": 3808,
      "Ġflicks": 3809,
      "aa": 3810,
      "thur": 3811,
      "Ġagent": 3812,
      "Ġanswer": 3813,
      "Ġmild": 3814,
      "Ġeight": 3815,
      "Ġdecis": 3816,
      "ature": 3817,
      "Ġlocation": 3818,
      "Ġmut": 3819,
      "Ġgorge": 3820,
      "Ġspeaking": 3821,
      "Ġmainly": 3822,
      "Ġcompelling": 3823,
      "Ġfright": 3824,
      "Ġdifference": 3825,
      "Ġrelationships": 3826,
      "Ġdrugs": 3827,
      "val": 3828,
      "inct": 3829,
      "Ġlam": 3830,
      "Ġkelly": 3831,
      "Ġmarriage": 3832,
      "Ġstation": 3833,
      "ledge": 3834,
      "ribe": 3835,
      "Ġtraged": 3836,
      "Ġbuff": 3837,
      "Ġrh": 3838,
      "Ġchuck": 3839,
      "Ġlacks": 3840,
      "Ġbase": 3841,
      "oned": 3842,
      "Ġlikable": 3843,
      "Ġpriv": 3844,
      "Ġsty": 3845,
      "Ġcamer": 3846,
      "Ġimpressed": 3847,
      "Ġfif": 3848,
      "Ġshare": 3849,
      "abb": 3850,
      "Ġdrawn": 3851,
      "Ġtwice": 3852,
      "Ġfinding": 3853,
      "Ġboard": 3854,
      "Ġcollection": 3855,
      "Ġoccasion": 3856,
      "aur": 3857,
      "table": 3858,
      "Ġthin": 3859,
      "Ġfreak": 3860,
      "Ġtrailer": 3861,
      "Ġresc": 3862,
      "Ġinformation": 3863,
      "Ġspectac": 3864,
      "Ġmulti": 3865,
      "Ġwide": 3866,
      "Ġdick": 3867,
      "Ġrated": 3868,
      "Ġhelps": 3869,
      "Ġhighlight": 3870,
      "Ġlighting": 3871,
      "Ġsymbol": 3872,
      "Ġlover": 3873,
      "Ġadds": 3874,
      "Ġcops": 3875,
      "Ġdeveloped": 3876,
      "uous": 3877,
      "Ġven": 3878,
      "Ġweap": 3879,
      "Ġholes": 3880,
      "Ġseemingly": 3881,
      "Ġappeared": 3882,
      "Ġshad": 3883,
      "bc": 3884,
      "ech": 3885,
      "erm": 3886,
      "Ġcele": 3887,
      "Ġindustry": 3888,
      "ablish": 3889,
      "lor": 3890,
      "Ġlyn": 3891,
      "Ġfault": 3892,
      "Ġhorse": 3893,
      "Ġfunniest": 3894,
      "Ġms": 3895,
      "Ġpaid": 3896,
      "Ġdelivers": 3897,
      "Ġanymore": 3898,
      "Ġbrown": 3899,
      "Ġremote": 3900,
      "ja": 3901,
      "Ġdeb": 3902,
      "Ġplane": 3903,
      "Ġmexic": 3904,
      "Ġnoir": 3905,
      "Ġvictims": 3906,
      "Ġnegative": 3907,
      "Ġna": 3908,
      "Ġwondering": 3909,
      "Ġflaws": 3910,
      "raid": 3911,
      "Ġshakespe": 3912,
      "Ġtour": 3913,
      "ica": 3914,
      "Ġconvers": 3915,
      "Ġlisten": 3916,
      "Ġadults": 3917,
      "Ġment": 3918,
      "Ġhasn": 3919,
      "text": 3920,
      "Ġfalling": 3921,
      "Ġanth": 3922,
      "Ġjon": 3923,
      "Ġmax": 3924,
      "Ġroy": 3925,
      "Ġhotel": 3926,
      "Ġmachine": 3927,
      "bad": 3928,
      "Ġdubb": 3929,
      "Ġgorgeous": 3930,
      "Ġbon": 3931,
      "omas": 3932,
      "Ġdepart": 3933,
      "ras": 3934,
      "Ġmoon": 3935,
      "Ġrout": 3936,
      "Ġfrust": 3937,
      "Ġscare": 3938,
      "Ġful": 3939,
      "Ġdisappe": 3940,
      "Ġoffers": 3941,
      "Ġcreative": 3942,
      "americ": 3943,
      "Ġtherefore": 3944,
      "Ġunc": 3945,
      "Ġaim": 3946,
      "Ġwise": 3947,
      "Ġhide": 3948,
      "film": 3949,
      "Ġwilling": 3950,
      "Ġnons": 3951,
      "Ġborn": 3952,
      "Ġallowed": 3953,
      "mi": 3954,
      "Ġlatter": 3955,
      "ands": 3956,
      "Ġsteven": 3957,
      "Ġfollowed": 3958,
      "Ġsoldier": 3959,
      "oted": 3960,
      "Ġblind": 3961,
      "aries": 3962,
      "Ġstuck": 3963,
      "Ġputting": 3964,
      "Ġreminded": 3965,
      "Ġrussian": 3966,
      "Ġforgotten": 3967,
      "Ġmerely": 3968,
      "Ġmediocre": 3969,
      "Ġmelodram": 3970,
      "Ġbath": 3971,
      "Ġcrash": 3972,
      "Ġsupposedly": 3973,
      "father": 3974,
      "Ġunus": 3975,
      "Ġ12": 3976,
      "Ġprovides": 3977,
      "Ġugly": 3978,
      "Ġcanad": 3979,
      "Ġspan": 3980,
      "Ġexplan": 3981,
      "ushed": 3982,
      "Ġbilly": 3983,
      "Ġfish": 3984,
      "Ġsuicide": 3985,
      "Ġartist": 3986,
      "icip": 3987,
      "illing": 3988,
      "Ġcann": 3989,
      "Ġanimals": 3990,
      "ipp": 3991,
      "Ġww": 3992,
      "ilities": 3993,
      "Ġvs": 3994,
      "Ġrobin": 3995,
      "Ġwoods": 3996,
      "stein": 3997,
      "Ġhat": 3998,
      "Ġdim": 3999,
      "Ġgames": 4000,
      "iles": 4001,
      "Ġstates": 4002,
      "Ġshouldn": 4003,
      "Ġimagination": 4004,
      "Ġarea": 4005,
      "Ġali": 4006,
      "Ġcontem": 4007,
      "Ġbecoming": 4008,
      "Ġrented": 4009,
      "now": 4010,
      "Ġonto": 4011,
      "Ġunne": 4012,
      "Ġready": 4013,
      "Ġattractive": 4014,
      "ef": 4015,
      "hol": 4016,
      "Ġcgi": 4017,
      "soever": 4018,
      "pected": 4019,
      "Ġphone": 4020,
      "Ġstandards": 4021,
      "Ġnaz": 4022,
      "Ġjackson": 4023,
      "aff": 4024,
      "Ġmouth": 4025,
      "Ġnorm": 4026,
      "Ġchristopher": 4027,
      "ini": 4028,
      "cover": 4029,
      "Ġdamn": 4030,
      "Ġchick": 4031,
      "Ġprefer": 4032,
      "Ġmurders": 4033,
      "Ġcard": 4034,
      "lev": 4035,
      "Ġvin": 4036,
      "Ġunreal": 4037,
      "Ġquiet": 4038,
      "Ġpersonality": 4039,
      "Ġamericans": 4040,
      "Ġpossess": 4041,
      "Ġscientist": 4042,
      "itor": 4043,
      "Ġford": 4044,
      "illa": 4045,
      "Ġtragic": 4046,
      "Ġseconds": 4047,
      "Ġcrowd": 4048,
      "Ġsea": 4049,
      "Ġwhatsoever": 4050,
      "bles": 4051,
      "Ġkidn": 4052,
      "Ġcoun": 4053,
      "eper": 4054,
      "hs": 4055,
      "Ġbright": 4056,
      "Ġangry": 4057,
      "Ġprofessional": 4058,
      "Ġsan": 4059,
      "Ġactions": 4060,
      "Ġgrow": 4061,
      "Ġpicked": 4062,
      "Ġreturns": 4063,
      ".,": 4064,
      "entional": 4065,
      "Ġlies": 4066,
      "Ġcompare": 4067,
      "Ġhelped": 4068,
      "Ġtragedy": 4069,
      "Ġeli": 4070,
      "Ġunderst": 4071,
      "Ġworthy": 4072,
      "Ġbatman": 4073,
      "miss": 4074,
      "orter": 4075,
      "Ġacad": 4076,
      "Ġstreng": 4077,
      "Ġcommentary": 4078,
      "Ġthoroughly": 4079,
      "Ġfro": 4080,
      "Ġpair": 4081,
      "Ġuncle": 4082,
      "Ġturning": 4083,
      "Ġchildhood": 4084,
      "Ġachieve": 4085,
      "Ġtorture": 4086,
      "Ġcaptain": 4087,
      "Ġteacher": 4088,
      "Ġcelebr": 4089,
      "erous": 4090,
      "Ġmember": 4091,
      "Ġwooden": 4092,
      "Ġlets": 4093,
      "Ġelect": 4094,
      "----": 4095,
      "Ġtheatre": 4096,
      "Ġshakespeare": 4097,
      "ita": 4098,
      "Ġlose": 4099,
      "spoil": 4100,
      "Ġnasty": 4101,
      "Ġbirth": 4102,
      "Ġproves": 4103,
      "ique": 4104,
      "Ġmoved": 4105,
      "ena": 4106,
      "Ġlord": 4107,
      "ules": 4108,
      "Ġprotect": 4109,
      "Ġactresses": 4110,
      "Ġestablish": 4111,
      "Ġcars": 4112,
      "Ġpunch": 4113,
      "aded": 4114,
      "Ġcreature": 4115,
      "Ġformula": 4116,
      "Ġpriest": 4117,
      "Ġwars": 4118,
      "port": 4119,
      "oul": 4120,
      "Ġjes": 4121,
      "agger": 4122,
      "Ġepic": 4123,
      "mes": 4124,
      "Ġmcc": 4125,
      "Ġafraid": 4126,
      "azy": 4127,
      "azz": 4128,
      "Ġsour": 4129,
      "asure": 4130,
      "Ġshop": 4131,
      "Ġhey": 4132,
      "Ġbland": 4133,
      "Ġshocking": 4134,
      "Ġclothes": 4135,
      "Ġthats": 4136,
      "Ġknock": 4137,
      "odies": 4138,
      "Ġslap": 4139,
      "Ġcontinue": 4140,
      ".'": 4141,
      "Ġfra": 4142,
      "Ġsuperior": 4143,
      "Ġasked": 4144,
      "nie": 4145,
      "Ġbank": 4146,
      "Ġwearing": 4147,
      "Ġbegan": 4148,
      "Ġmob": 4149,
      "Ġsnow": 4150,
      "Ġseven": 4151,
      "urally": 4152,
      "Ġapartment": 4153,
      "year": 4154,
      "rad": 4155,
      "Ġnorth": 4156,
      "Ġphysical": 4157,
      "Ġmagnific": 4158,
      "Ġnick": 4159,
      "Ġartistic": 4160,
      "Ġprovide": 4161,
      "Ġcro": 4162,
      "Ġnin": 4163,
      "Ġheld": 4164,
      "Ġsucks": 4165,
      "inese": 4166,
      "Ġteenage": 4167,
      "Ġice": 4168,
      "Ġcourt": 4169,
      "Ġmemory": 4170,
      "Ġdescribe": 4171,
      "Ġfavourite": 4172,
      "lli": 4173,
      "Ġflying": 4174,
      "anks": 4175,
      "Ġris": 4176,
      "Ġbits": 4177,
      "Ġrepeated": 4178,
      "Ġunexpected": 4179,
      "xual": 4180,
      "Ġdying": 4181,
      "tend": 4182,
      "Ġwanting": 4183,
      "ka": 4184,
      "Ġyouth": 4185,
      "Ġkiss": 4186,
      "Ġjudge": 4187,
      "director": 4188,
      "bur": 4189,
      "gory": 4190,
      "Ġrealized": 4191,
      "Ġpleasure": 4192,
      "Ġ?": 4193,
      "Ġryan": 4194,
      "Ġjr": 4195,
      "Ġine": 4196,
      "Ġqueen": 4197,
      "Ġwarm": 4198,
      "cas": 4199,
      "Ġlay": 4200,
      "search": 4201,
      "Ġunknown": 4202,
      "Ġanybody": 4203,
      "Ġinsight": 4204,
      "Ġfood": 4205,
      "Ġdress": 4206,
      "Ġgent": 4207,
      "Ġintelligence": 4208,
      "Ġnumbers": 4209,
      "zen": 4210,
      "agers": 4211,
      "Ġinspired": 4212,
      "Ġstruggle": 4213,
      "Ġgut": 4214,
      "Ġintroduced": 4215,
      "Ġmine": 4216,
      "Ġfal": 4217,
      "stal": 4218,
      "bell": 4219,
      "rie": 4220,
      "Ġenergy": 4221,
      "Ġrus": 4222,
      "Ġloving": 4223,
      "Ġgrad": 4224,
      "ators": 4225,
      "Ġstone": 4226,
      "Ġrarely": 4227,
      "Ġheaven": 4228,
      "yes": 4229,
      "Ġsis": 4230,
      "Ġmic": 4231,
      "Ġexplos": 4232,
      "Ġvision": 4233,
      "Ġdevil": 4234,
      "Ġredeeming": 4235,
      "Ġintriguing": 4236,
      "Ġtears": 4237,
      "Ġempt": 4238,
      "Ġzero": 4239,
      "Ġhund": 4240,
      "Ġmartial": 4241,
      "Ġpage": 4242,
      "ashing": 4243,
      "Ġaccom": 4244,
      "ba": 4245,
      "Ġnecessary": 4246,
      "Ġtwenty": 4247,
      "Ġoccur": 4248,
      "Ġjason": 4249,
      "Ġenter": 4250,
      "Ġbrutal": 4251,
      "aire": 4252,
      "rors": 4253,
      "Ġrubb": 4254,
      "Ġperform": 4255,
      "Ġemploy": 4256,
      "Ġarts": 4257,
      "ĠclichÃ©s": 4258,
      "Ġcontrast": 4259,
      "Ġindependent": 4260,
      "Ġthous": 4261,
      "Ġanywhere": 4262,
      "Ġsepar": 4263,
      "heart": 4264,
      "Ġpresident": 4265,
      "Ġtarget": 4266,
      "Ġchas": 4267,
      "Ġsoap": 4268,
      "hero": 4269,
      "Ġaware": 4270,
      "Ġrelative": 4271,
      "Ġrape": 4272,
      "Ġdeserve": 4273,
      "Ġholds": 4274,
      "Ġwilliams": 4275,
      "lock": 4276,
      "otes": 4277,
      "ousy": 4278,
      "Ġwatchable": 4279,
      "pective": 4280,
      "Ġaccord": 4281,
      "Ġbog": 4282,
      "apped": 4283,
      "Ġsurprising": 4284,
      "bra": 4285,
      "kward": 4286,
      "ville": 4287,
      "Ġwed": 4288,
      "Ġknowledge": 4289,
      "Ġrecall": 4290,
      "Ġcalls": 4291,
      "Ġdeserved": 4292,
      "Ġhenry": 4293,
      "ropriate": 4294,
      "ii": 4295,
      "spe": 4296,
      "Ġasks": 4297,
      "Ġ1950": 4298,
      "nam": 4299,
      "Ġast": 4300,
      "Ġscr": 4301,
      "why": 4302,
      "Ġaccount": 4303,
      "Ġsyn": 4304,
      "Ġreligious": 4305,
      "Ġchinese": 4306,
      "Ġvol": 4307,
      "Ġbelong": 4308,
      "Ġfilmmaker": 4309,
      "Ġmoore": 4310,
      "Ġskin": 4311,
      "Ġdeeply": 4312,
      "Ġdangerous": 4313,
      "Ġaccurate": 4314,
      "Ġlone": 4315,
      "Ġstink": 4316,
      "Ġhack": 4317,
      "Ġjerry": 4318,
      "aton": 4319,
      "Ġtend": 4320,
      "Ġboat": 4321,
      "Ġsurreal": 4322,
      "Ġcomedic": 4323,
      "Ġcraft": 4324,
      "ole": 4325,
      "Ġhidden": 4326,
      "Ġsuff": 4327,
      "nold": 4328,
      "Ġtun": 4329,
      "Ġthomas": 4330,
      "Ġ13": 4331,
      "Ġincludes": 4332,
      "break": 4333,
      "Ġprogress": 4334,
      "Ġbrid": 4335,
      "Ġawkward": 4336,
      "Ġwonderfully": 4337,
      "Ġreminds": 4338,
      "Ġhill": 4339,
      "ency": 4340,
      "entious": 4341,
      "Ġhundred": 4342,
      "Ġwat": 4343,
      "Ġfab": 4344,
      "especially": 4345,
      "Ġanimal": 4346,
      "Ġbloody": 4347,
      "Ġmike": 4348,
      "Ġdirty": 4349,
      "Ġreact": 4350,
      "Ġresearch": 4351,
      "ops": 4352,
      "Ġblame": 4353,
      "ancy": 4354,
      "teen": 4355,
      "iance": 4356,
      "Ġunderstanding": 4357,
      "Ġhint": 4358,
      "Ġgam": 4359,
      "eman": 4360,
      "hand": 4361,
      "Ġpacing": 4362,
      "ading": 4363,
      "urity": 4364,
      "Ġmission": 4365,
      "Ġ1970": 4366,
      "Ġexplanation": 4367,
      "oos": 4368,
      "Ġkevin": 4369,
      "Ġlimited": 4370,
      "Ġcriminal": 4371,
      "Ġenth": 4372,
      "Ġassist": 4373,
      "Ġbrand": 4374,
      "first": 4375,
      "pet": 4376,
      "Ġdut": 4377,
      "ilst": 4378,
      "Ġloss": 4379,
      "ooks": 4380,
      "Ġbelow": 4381,
      "Ġfriendship": 4382,
      "aly": 4383,
      "Ġunusual": 4384,
      "Ġprice": 4385,
      "Ġspoiler": 4386,
      "Ġoli": 4387,
      "Ġnic": 4388,
      "Ġobser": 4389,
      "Ġdom": 4390,
      "Ġflesh": 4391,
      "Ġofficer": 4392,
      "Ġsoph": 4393,
      "Ġwel": 4394,
      "ifer": 4395,
      "Ġnicely": 4396,
      "Ġremarkable": 4397,
      "american": 4398,
      "Ġtight": 4399,
      "Ġallen": 4400,
      "Ġspeed": 4401,
      "Ġinsane": 4402,
      "Ġhated": 4403,
      "plot": 4404,
      "Ġmemories": 4405,
      "Ġscared": 4406,
      "Ġsomebody": 4407,
      "Ġsmile": 4408,
      "Ġconstant": 4409,
      "Ġopposite": 4410,
      "iac": 4411,
      "Ġlie": 4412,
      "Ġnoticed": 4413,
      "Ġsac": 4414,
      "Ġdanny": 4415,
      "Ġtransl": 4416,
      "Ġgags": 4417,
      "nia": 4418,
      "rical": 4419,
      "reck": 4420,
      "Ġdun": 4421,
      "Ġnomin": 4422,
      "Ġlocations": 4423,
      "Ġmotiv": 4424,
      "inal": 4425,
      "icle": 4426,
      "Ġanne": 4427,
      "Ġvhs": 4428,
      "Ġsignific": 4429,
      "Ġunnecessary": 4430,
      "ners": 4431,
      "po": 4432,
      "tv": 4433,
      "itz": 4434,
      "ids": 4435,
      "Ġhoward": 4436,
      "Ġcrack": 4437,
      "Ġsteal": 4438,
      "Ġheads": 4439,
      "fl": 4440,
      "oved": 4441,
      "wis": 4442,
      "Ġtay": 4443,
      "Ġleader": 4444,
      "Ġregret": 4445,
      "Ġcaptured": 4446,
      "Ġriver": 4447,
      "Ġissue": 4448,
      "Ġproceed": 4449,
      "Ġmonths": 4450,
      "Ġaccompl": 4451,
      "Ġcant": 4452,
      "char": 4453,
      "Ġdebut": 4454,
      "Ġlearned": 4455,
      "Ġcommunity": 4456,
      "Ġneighbor": 4457,
      "Ġunint": 4458,
      "herent": 4459,
      "bian": 4460,
      "Ġfate": 4461,
      "Ġwarning": 4462,
      "Ġengaging": 4463,
      "Ġtechnical": 4464,
      "und": 4465,
      "Ġopt": 4466,
      "Ġwhilst": 4467,
      "Ġord": 4468,
      "ivity": 4469,
      "Ġreferences": 4470,
      "Ġpowers": 4471,
      "!).": 4472,
      "Ġmental": 4473,
      "Ġplayer": 4474,
      "Ġacademy": 4475,
      "Ġsant": 4476,
      "soci": 4477,
      "Ġvisit": 4478,
      "Ġsinger": 4479,
      "Ġmorning": 4480,
      "fo": 4481,
      "Ġcore": 4482,
      "atory": 4483,
      "anced": 4484,
      "Ġplots": 4485,
      "Ġveh": 4486,
      "Ġdor": 4487,
      "Ġmanage": 4488,
      "Ġtex": 4489,
      "Ġsubtit": 4490,
      "part": 4491,
      "terest": 4492,
      "Ġinterpret": 4493,
      "Ġbelief": 4494,
      "Ġmonsters": 4495,
      "Ġhumanity": 4496,
      "Ġheroes": 4497,
      "Ġguns": 4498,
      "Ġresponsible": 4499,
      "may": 4500,
      "Ġgolden": 4501,
      "Ġlength": 4502,
      "stick": 4503,
      "Ġros": 4504,
      "Ġlovers": 4505,
      "arded": 4506,
      "Ġcreating": 4507,
      "Ġskill": 4508,
      "Ġfloor": 4509,
      "ante": 4510,
      "Ġdig": 4511,
      "Ġminim": 4512,
      "elle": 4513,
      "Ġ1980": 4514,
      "Ġnational": 4515,
      "aud": 4516,
      "Ġskip": 4517,
      "Ġrevolution": 4518,
      "Ġcruel": 4519,
      "Ġdesperate": 4520,
      "Ġlynch": 4521,
      "Ġhyp": 4522,
      "Ġaband": 4523,
      "ipul": 4524,
      "yer": 4525,
      "Ġow": 4526,
      "Ġbear": 4527,
      "Ġseat": 4528,
      "Ġvac": 4529,
      "Ġplayers": 4530,
      "Ġforeign": 4531,
      "Ġrubbish": 4532,
      "Ġsav": 4533,
      "Ġhumans": 4534,
      "Ġjohnny": 4535,
      "Ġbuddy": 4536,
      "Ġsky": 4537,
      "Ġlacking": 4538,
      "Ġdriving": 4539,
      "Ġbehavior": 4540,
      "Ġwid": 4541,
      "Ġstarting": 4542,
      "ruction": 4543,
      "ker": 4544,
      "ked": 4545,
      "Ġcate": 4546,
      "Ġfinished": 4547,
      "Ġexplained": 4548,
      "Ġengland": 4549,
      "Ġgeneration": 4550,
      "Ġtreated": 4551,
      "Ġwindow": 4552,
      "Ġfreed": 4553,
      "Ġsed": 4554,
      "Ġhur": 4555,
      "Ġstret": 4556,
      "Ġframe": 4557,
      "Ġarthur": 4558,
      "Ġpeace": 4559,
      "Ġspecif": 4560,
      "Ġsurvive": 4561,
      "Ġcomparison": 4562,
      "Ġpilot": 4563,
      "Ġlind": 4564,
      "alled": 4565,
      "Ġjunk": 4566,
      "Ġremain": 4567,
      "Ġeduc": 4568,
      "Ġconnection": 4569,
      "Ġpress": 4570,
      "Ġly": 4571,
      "Ġbell": 4572,
      "Ġgrat": 4573,
      "ift": 4574,
      "Ġvirgin": 4575,
      "Ġconnect": 4576,
      "Ġhits": 4577,
      "Ġcook": 4578,
      "anic": 4579,
      "Ġbeach": 4580,
      "udd": 4581,
      "natural": 4582,
      "irk": 4583,
      "Ġincre": 4584,
      "Ġkeeping": 4585,
      "Ġassass": 4586,
      "Ġnut": 4587,
      "Ġrub": 4588,
      "Ġatro": 4589,
      "Ġfights": 4590,
      "Ġefforts": 4591,
      "Ġrepresent": 4592,
      "Ġtaylor": 4593,
      "cis": 4594,
      "cise": 4595,
      "asts": 4596,
      "Ġhadn": 4597,
      "looking": 4598,
      "hi": 4599,
      "oman": 4600,
      "cient": 4601,
      "iven": 4602,
      "Ġdomin": 4603,
      "rog": 4604,
      "Ġjoan": 4605,
      "ennifer": 4606,
      "âĢ": 4607,
      "Ġuncon": 4608,
      "Ġpartner": 4609,
      "Ġbigger": 4610,
      "rate": 4611,
      "Ġalan": 4612,
      "Ġstruct": 4613,
      "Ġincluded": 4614,
      "200": 4615,
      "abor": 4616,
      "Ġmixed": 4617,
      "tt": 4618,
      "Ġforces": 4619,
      "ooper": 4620,
      "Ġ11": 4621,
      "Ġgotten": 4622,
      "Ġmurdered": 4623,
      "Ġnumerous": 4624,
      "Ġprinci": 4625,
      "Ġmagnificent": 4626,
      "Ġtape": 4627,
      "Ġgoof": 4628,
      "thod": 4629,
      "Ġprove": 4630,
      "pless": 4631,
      "Ġgrowing": 4632,
      "Ġinstance": 4633,
      "Ġcrappy": 4634,
      "Ġcapture": 4635,
      "Ġcircum": 4636,
      "rous": 4637,
      "Ġbrian": 4638,
      "Ġhay": 4639,
      "Ġdesire": 4640,
      "Ġwinning": 4641,
      "Ġmedia": 4642,
      "Ġintent": 4643,
      "aren": 4644,
      "Ġfinest": 4645,
      "Ġdavis": 4646,
      "Ġprotagonist": 4647,
      "mare": 4648,
      "Ġward": 4649,
      "Ġcarl": 4650,
      "from": 4651,
      "Ġoccasionally": 4652,
      "Ġpaper": 4653,
      "???": 4654,
      "Ġstephen": 4655,
      "acc": 4656,
      "cons": 4657,
      "Ġwitty": 4658,
      "Ġadvice": 4659,
      "Ġcass": 4660,
      "Ġcash": 4661,
      "Ġassoci": 4662,
      "ensional": 4663,
      "Ġsimpl": 4664,
      "Ġcali": 4665,
      "Ġsharp": 4666,
      "iling": 4667,
      "Ġspoof": 4668,
      "Ġexperien": 4669,
      "Ġmodel": 4670,
      "Ġstrength": 4671,
      "oons": 4672,
      "pher": 4673,
      "aker": 4674,
      "Ġvillains": 4675,
      "Ġgal": 4676,
      "Ġcontext": 4677,
      "Ġloy": 4678,
      "Ġrealism": 4679,
      "Ġspeech": 4680,
      "Ġmini": 4681,
      "Ġtext": 4682,
      "Ġguest": 4683,
      "Ġcris": 4684,
      "Ġdeterm": 4685,
      "Ġfrequ": 4686,
      "Ġencounter": 4687,
      "Ġempty": 4688,
      "uel": 4689,
      "Ġcab": 4690,
      "Ġcable": 4691,
      "ato": 4692,
      "Ġdeals": 4693,
      "screen": 4694,
      "Ġhopes": 4695,
      "Ġnormally": 4696,
      "reg": 4697,
      "Ġjan": 4698,
      "Ġheroine": 4699,
      "Ġhumorous": 4700,
      "Ġintellect": 4701,
      "john": 4702,
      "Ġeddie": 4703,
      "Ġveter": 4704,
      "Ġangel": 4705,
      "Ġreaction": 4706,
      "ails": 4707,
      "Ġcuts": 4708,
      "Ġrevealed": 4709,
      "Ġnonsense": 4710,
      "Ġordinary": 4711,
      "Ġincomp": 4712,
      "Ġoriginally": 4713,
      "Ġsword": 4714,
      "Ġdealing": 4715,
      "Ġphotograph": 4716,
      "wolf": 4717,
      "Ġtoward": 4718,
      "oooo": 4719,
      "Ġenvir": 4720,
      "icked": 4721,
      "Ġfinale": 4722,
      "Ġirritating": 4723,
      "des": 4724,
      "zan": 4725,
      "Ġron": 4726,
      "Ġlock": 4727,
      "ups": 4728,
      "Ġresol": 4729,
      "Ġterribly": 4730,
      "Ġrelate": 4731,
      "Ġglass": 4732,
      "Ġtrek": 4733,
      ");": 4734,
      "gir": 4735,
      "rays": 4736,
      "Ġbag": 4737,
      "Ġmas": 4738,
      "Ġfer": 4739,
      "iser": 4740,
      "Ġprovo": 4741,
      "Ġstereotypes": 4742,
      "ÂĹ": 4743,
      "Ġcy": 4744,
      "Ġcyn": 4745,
      "Ġlouis": 4746,
      "Ġphilos": 4747,
      "Ġmitch": 4748,
      "Ġmask": 4749,
      "cher": 4750,
      "Ġbroken": 4751,
      "Ġresults": 4752,
      "Ġconcerned": 4753,
      "cket": 4754,
      "gue": 4755,
      "Ġgig": 4756,
      "Ġwhenever": 4757,
      "Ġwayne": 4758,
      "Ġpulled": 4759,
      "Ġessentially": 4760,
      "Ġspanish": 4761,
      "Ġgentle": 4762,
      "hum": 4763,
      "Ġ/": 4764,
      "thern": 4765,
      "Ġnaturally": 4766,
      "Ġcircumst": 4767,
      "Ġsafe": 4768,
      "Ġaccording": 4769,
      "Ġbow": 4770,
      "sell": 4771,
      "ama": 4772,
      "Ġhaw": 4773,
      "Ġens": 4774,
      "Ġowner": 4775,
      "Ġkinda": 4776,
      "ban": 4777,
      "top": 4778,
      "Ġmarvel": 4779,
      "Ġfrankly": 4780,
      "Ġpupp": 4781,
      "__": 4782,
      "cies": 4783,
      "Ġsheer": 4784,
      "Ġtrib": 4785,
      "Ġconsist": 4786,
      "Ġvillage": 4787,
      "Ġteenagers": 4788,
      "imental": 4789,
      "irm": 4790,
      "Ġchan": 4791,
      "Ġdisp": 4792,
      "bled": 4793,
      "Ġwound": 4794,
      "Ġsean": 4795,
      "Ġscrew": 4796,
      "ques": 4797,
      "umps": 4798,
      "Ġtruck": 4799,
      "Ġfeet": 4800,
      "Ġskills": 4801,
      "Ġtalents": 4802,
      "Ġexpert": 4803,
      "Ġstreets": 4804,
      "Ġenviron": 4805,
      "nders": 4806,
      "Ġandrew": 4807,
      "Ġsaving": 4808,
      "Ġmiser": 4809,
      "Ġcorrupt": 4810,
      "Ġhunter": 4811,
      "fortable": 4812,
      "Ġeric": 4813,
      "Ġdressed": 4814,
      "Ġvul": 4815,
      "Ġmanipul": 4816,
      "ishing": 4817,
      "Ġprint": 4818,
      "Ġcolumb": 4819,
      "Ġregular": 4820,
      "Ġeuropean": 4821,
      "bling": 4822,
      "can": 4823,
      "Ġeth": 4824,
      "Ġorgan": 4825,
      "Ġpretentious": 4826,
      "Ġmeanwhile": 4827,
      "Ġinternational": 4828,
      "ration": 4829,
      "Ġjung": 4830,
      "Ġunfunny": 4831,
      "Ġmrs": 4832,
      "Ġsucked": 4833,
      "ĠÌ": 4834,
      "Ġfrance": 4835,
      "Ġcastle": 4836,
      "Ġbatt": 4837,
      "rifying": 4838,
      "porary": 4839,
      "Ġdiscovered": 4840,
      "Ġgenuinely": 4841,
      "Ġchallen": 4842,
      "Ġheal": 4843,
      "Ġsaved": 4844,
      "anned": 4845,
      "Ġcenter": 4846,
      "Ġpsychological": 4847,
      "Ġreceived": 4848,
      "iving": 4849,
      "law": 4850,
      "za": 4851,
      "icious": 4852,
      "Ġhigher": 4853,
      "Ġstudy": 4854,
      "eg": 4855,
      "iro": 4856,
      "Ġchore": 4857,
      "ograp": 4858,
      "Ġunfold": 4859,
      "Ġprivate": 4860,
      "Ġton": 4861,
      "ario": 4862,
      "Ġattitude": 4863,
      "Ġremembered": 4864,
      "Ġlevels": 4865,
      "awn": 4866,
      "Ġjose": 4867,
      "dom": 4868,
      "ads": 4869,
      "Ġrange": 4870,
      "Ġheck": 4871,
      "Ġconsequ": 4872,
      "phy": 4873,
      "Ġglor": 4874,
      "Ġlesson": 4875,
      "Ġbarry": 4876,
      "ruct": 4877,
      "Ġafrican": 4878,
      "oween": 4879,
      "Ġsole": 4880,
      "Ġweal": 4881,
      "Ġcontinues": 4882,
      "Ġmiles": 4883,
      "vy": 4884,
      "Ġwow": 4885,
      "Ġgary": 4886,
      "Ġvote": 4887,
      "acting": 4888,
      "Ġunable": 4889,
      "Ġcharism": 4890,
      "Ġvisuals": 4891,
      "Ġsheriff": 4892,
      "Ġtexas": 4893,
      "point": 4894,
      "Ġhart": 4895,
      "Ġgh": 4896,
      "Ġgas": 4897,
      "ication": 4898,
      "Ġmarry": 4899,
      "Ġfailure": 4900,
      "ennis": 4901,
      "Ġbreaks": 4902,
      "ographer": 4903,
      "Ġwrest": 4904,
      "abeth": 4905,
      "Ġdecade": 4906,
      "Ġedited": 4907,
      "Ġreviewers": 4908,
      "Ġfootball": 4909,
      "Ġscreaming": 4910,
      "glas": 4911,
      "Ġdecision": 4912,
      "Ġspectacular": 4913,
      "core": 4914,
      "Ġgross": 4915,
      "telling": 4916,
      "Ġcameo": 4917,
      "Ġdeg": 4918,
      "Ġfamil": 4919,
      "Ġdated": 4920,
      "Ġopens": 4921,
      "Ġfeaturing": 4922,
      "Ġdreadful": 4923,
      "cul": 4924,
      "Ġsite": 4925,
      "Ġdisplay": 4926,
      "Ġevidence": 4927,
      "Ġsatire": 4928,
      "Ġgangster": 4929,
      "Ġske": 4930,
      "Ġrow": 4931,
      "ulous": 4932,
      "Ġoverly": 4933,
      "athan": 4934,
      "rence": 4935,
      "rant": 4936,
      "Ġsid": 4937,
      "Ġagre": 4938,
      "Ġflow": 4939,
      "away": 4940,
      "........": 4941,
      "Ġimagin": 4942,
      "Ġdistract": 4943,
      "Ġexistence": 4944,
      "Ġfreedom": 4945,
      "kins": 4946,
      "oring": 4947,
      "Ġgory": 4948,
      "Ġlogic": 4949,
      "Ġgrown": 4950,
      "Ġrelief": 4951,
      "Ġcurious": 4952,
      "Ġultimate": 4953,
      "Ġunrealistic": 4954,
      "Ġbird": 4955,
      "ribut": 4956,
      "Ġviet": 4957,
      "Ġflashbacks": 4958,
      "Ġdescribed": 4959,
      "uls": 4960,
      "Ġaltern": 4961,
      "Ġlewis": 4962,
      "Ġperspective": 4963,
      "Ġcontrived": 4964,
      "Ġshallow": 4965,
      "50": 4966,
      "Ġobsc": 4967,
      "spir": 4968,
      "Ġwedding": 4969,
      "pent": 4970,
      "Ġandy": 4971,
      "Ġnich": 4972,
      "Ġken": 4973,
      "Ġidentity": 4974,
      "Ġchief": 4975,
      "plin": 4976,
      "vest": 4977,
      "Ġtack": 4978,
      "Ġwashing": 4979,
      "Ġextraord": 4980,
      "oke": 4981,
      "isa": 4982,
      "Ġnative": 4983,
      "Ġrose": 4984,
      "Ġincident": 4985,
      "Ġparody": 4986,
      "Ġcorny": 4987,
      "Ġphilosoph": 4988,
      "Ġfame": 4989,
      "agal": 4990,
      "Ġsake": 4991,
      "Ġcreatures": 4992,
      "Ġswitch": 4993,
      "Ġiron": 4994,
      "Ġdiscovers": 4995,
      "Ġaustralian": 4996,
      "stit": 4997,
      "Ġredu": 4998,
      "Ġemer": 4999,
      "Ġclassics": 5000,
      "Ġmorgan": 5001,
      "Ġdouglas": 5002,
      "Ġsumm": 5003,
      "ga": 5004,
      "leep": 5005,
      "Ġrot": 5006,
      "Ġasian": 5007,
      "iller": 5008,
      "Ġlucky": 5009,
      "Ġanthony": 5010,
      "Ġgonna": 5011,
      "Ġcares": 5012,
      "Ġgrew": 5013,
      "Ġchoose": 5014,
      "Ġkeaton": 5015,
      "Ġinvolves": 5016,
      "Ġreflect": 5017,
      "Ġlower": 5018,
      "thr": 5019,
      "ushing": 5020,
      "Ġnightmare": 5021,
      "Ġteenager": 5022,
      "Ġcombination": 5023,
      "Ġladies": 5024,
      "Ġbbc": 5025,
      "Ġshut": 5026,
      "Ġsund": 5027,
      "Ġgord": 5028,
      "Ġuncom": 5029,
      "Ġgraphic": 5030,
      "car": 5031,
      "Ġtap": 5032,
      "Ġbodies": 5033,
      "Ġcath": 5034,
      "Ġdry": 5035,
      "Ġpin": 5036,
      "itter": 5037,
      "Ġlaughter": 5038,
      "Ġexpos": 5039,
      "Ġdelivered": 5040,
      "Ġdelightful": 5041,
      "Ġcandy": 5042,
      "Ġuk": 5043,
      "Ġunderrated": 5044,
      "Ġadmir": 5045,
      "class": 5046,
      "Ġprovided": 5047,
      "Ġtheaters": 5048,
      "Ġjimmy": 5049,
      "Ġservice": 5050,
      "Ġendless": 5051,
      "Ġtypes": 5052,
      "pre": 5053,
      "zed": 5054,
      "osh": 5055,
      "appy": 5056,
      "Ġcreates": 5057,
      "Ġvisually": 5058,
      "Ġmeeting": 5059,
      "Ġrescue": 5060,
      "Ġsisters": 5061,
      "ube": 5062,
      "anged": 5063,
      "Ġreviewer": 5064,
      "Ġfamilies": 5065,
      "atra": 5066,
      "lyn": 5067,
      "Ġjess": 5068,
      "outs": 5069,
      "ashed": 5070,
      "Ġjulie": 5071,
      "Ġexpression": 5072,
      "Ġemotionally": 5073,
      "Ġdisgusting": 5074,
      "Ġaliens": 5075,
      "Ġhood": 5076,
      "itable": 5077,
      "Ġgard": 5078,
      "Ġsend": 5079,
      "Ġasking": 5080,
      "Ġadvert": 5081,
      "Ġages": 5082,
      "Ġbuilt": 5083,
      "Ġtalks": 5084,
      "Ġcapable": 5085,
      "Ġfortun": 5086,
      "Ġcounter": 5087,
      "rich": 5088,
      "oting": 5089,
      "ilty": 5090,
      "Ġshel": 5091,
      "Ġjennifer": 5092,
      "Ġallows": 5093,
      "Ġproved": 5094,
      "Ġstanding": 5095,
      "Ġhandsome": 5096,
      "Ġamateurish": 5097,
      "Ġsab": 5098,
      "Ġhung": 5099,
      "Ġnecess": 5100,
      "Ġspin": 5101,
      "ogy": 5102,
      "Ġcolour": 5103,
      "Ġbrilliantly": 5104,
      "Ġhitler": 5105,
      "Ġloses": 5106,
      "Ġcompan": 5107,
      "Ġdriver": 5108,
      "Ġpropag": 5109,
      "hab": 5110,
      "Ġwolf": 5111,
      "Ġinex": 5112,
      "entic": 5113,
      "Ġvampires": 5114,
      "Ġassume": 5115,
      "Ġchaplin": 5116,
      "gers": 5117,
      "made": 5118,
      "Ġeating": 5119,
      "Ġruth": 5120,
      "Ġkong": 5121,
      "ummy": 5122,
      "Ġsympathetic": 5123,
      "Ġtable": 5124,
      "ument": 5125,
      "Ġbelieves": 5126,
      "luding": 5127,
      "gged": 5128,
      "Ġhaunting": 5129,
      "Ġtraditional": 5130,
      "Ġenvironment": 5131,
      "Ġtiny": 5132,
      "icit": 5133,
      "Ġalbert": 5134,
      "Ġleon": 5135,
      "osexual": 5136,
      "othy": 5137,
      "Ġsitcom": 5138,
      "Ġcosts": 5139,
      "end": 5140,
      "every": 5141,
      "Ġpromise": 5142,
      "Ġbound": 5143,
      "usi": 5144,
      "Ġaccomp": 5145,
      "entionally": 5146,
      "fire": 5147,
      "Ġnevertheless": 5148,
      "angers": 5149,
      "Ġcommand": 5150,
      "Ġmajority": 5151,
      "Ġtreatment": 5152,
      "Ġdollars": 5153,
      "Ġtedious": 5154,
      "levant": 5155,
      "mind": 5156,
      "ym": 5157,
      "Ġ)": 5158,
      "osen": 5159,
      "Ġmatt": 5160,
      "Ġembarrassing": 5161,
      "ued": 5162,
      "Ġbringing": 5163,
      "Ġinspir": 5164,
      "Ġinept": 5165,
      "ients": 5166,
      "Ġfil": 5167,
      "Ġrules": 5168,
      "Ġenemy": 5169,
      "Ġblow": 5170,
      "formed": 5171,
      "Ġcompos": 5172,
      "Ġexecuted": 5173,
      "Ġlesbian": 5174,
      "Ġharsh": 5175,
      "itiz": 5176,
      "Ġjam": 5177,
      "Ġstrongly": 5178,
      "Ġpurch": 5179,
      "Ġnaive": 5180,
      "ca": 5181,
      "ros": 5182,
      "Ġsteals": 5183,
      "Ġharm": 5184,
      "Ġlear": 5185,
      "Ġthoughts": 5186,
      "Ġportrays": 5187,
      "Ġgratuit": 5188,
      "dan": 5189,
      "Ġnav": 5190,
      "Ġseagal": 5191,
      "Ġmaint": 5192,
      "usive": 5193,
      "Ġhorribly": 5194,
      "Ġviewed": 5195,
      "Ġcontrovers": 5196,
      "Ġcircumstances": 5197,
      "Ġancient": 5198,
      "Ġrefres": 5199,
      "low": 5200,
      "Ġfict": 5201,
      "eness": 5202,
      "uther": 5203,
      "Ġevening": 5204,
      "Ġmatters": 5205,
      "ault": 5206,
      "nor": 5207,
      "Ġlink": 5208,
      "Ġlousy": 5209,
      "rix": 5210,
      "Ġguard": 5211,
      "Ġexcited": 5212,
      "Ġwalked": 5213,
      "Ġrental": 5214,
      "Ġdogs": 5215,
      "Ġreligion": 5216,
      "den": 5217,
      "Ġfare": 5218,
      "Ġcage": 5219,
      "Ġeld": 5220,
      "Ġrise": 5221,
      "Ġspark": 5222,
      "Ġgermany": 5223,
      "Ġuniversal": 5224,
      "pass": 5225,
      "Ġstol": 5226,
      "Ġproud": 5227,
      "Ġprior": 5228,
      "Ġsequels": 5229,
      "Ġpleasant": 5230,
      "Ġgordon": 5231,
      "Ġdyn": 5232,
      "Ġende": 5233,
      "Ġcaused": 5234,
      "Ġsatur": 5235,
      "Ġnetwork": 5236,
      "ĠÌģ": 5237,
      "done": 5238,
      "produ": 5239,
      "Ġhunt": 5240,
      "stream": 5241,
      "Ġawards": 5242,
      "Ġinvent": 5243,
      "Ġprince": 5244,
      "Ġblonde": 5245,
      "Ġsen": 5246,
      "Ġpity": 5247,
      "Ġanderson": 5248,
      "Ġconce": 5249,
      "Ġinvolve": 5250,
      "\").": 5251,
      "col": 5252,
      "enstein": 5253,
      "imate": 5254,
      "alling": 5255,
      "Ġjesus": 5256,
      "Ġrefreshing": 5257,
      "Ġwalks": 5258,
      "Ġdinos": 5259,
      "Ġweeks": 5260,
      "Ġharris": 5261,
      "Ġblockb": 5262,
      "orig": 5263,
      "Ġinev": 5264,
      "Ġrevel": 5265,
      "aken": 5266,
      "Ġpassed": 5267,
      "Ġvoices": 5268,
      "hh": 5269,
      "long": 5270,
      "nes": 5271,
      "oyd": 5272,
      "fornia": 5273,
      "Ġtechnology": 5274,
      "Ġtheatrical": 5275,
      "Ġauthentic": 5276,
      "Ġroutine": 5277,
      "jack": 5278,
      "mother": 5279,
      "nal": 5280,
      "ya": 5281,
      "Ġunfor": 5282,
      "Ġfacts": 5283,
      "Ġentertained": 5284,
      "Ġpsycho": 5285,
      "Ġsuffering": 5286,
      "Ġdubbed": 5287,
      "Ġsubtitles": 5288,
      "Ġrough": 5289,
      "ola": 5290,
      "Ġunited": 5291,
      "Ġclue": 5292,
      "Ġsports": 5293,
      "Ġade": 5294,
      "Ġpreach": 5295,
      "Ġshocked": 5296,
      "Ġfrancis": 5297,
      "Ġstopped": 5298,
      "Ġcontemporary": 5299,
      "Ġsource": 5300,
      "teresting": 5301,
      "ront": 5302,
      "Ġoffe": 5303,
      "arian": 5304,
      "aming": 5305,
      "ums": 5306,
      "Ġproduce": 5307,
      "Ġtwisted": 5308,
      "Ġpush": 5309,
      "Ġforth": 5310,
      "urse": 5311,
      "roll": 5312,
      "Ġbrad": 5313,
      "Ġhopefully": 5314,
      "Ġsilver": 5315,
      "Ġenthusi": 5316,
      "oom": 5317,
      "oid": 5318,
      "vol": 5319,
      "Ġconvey": 5320,
      "Ġdepressing": 5321,
      "love": 5322,
      "Ġcriticism": 5323,
      "sch": 5324,
      "xious": 5325,
      "Ġwins": 5326,
      "Ġplans": 5327,
      "Ġkillers": 5328,
      "Ġletter": 5329,
      "Ġreput": 5330,
      "Ġuniverse": 5331,
      "Ġgratuitous": 5332,
      "inis": 5333,
      "Ġalice": 5334,
      "Ġmarket": 5335,
      "Ġportraying": 5336,
      "Ġpainfully": 5337,
      "Ġpopul": 5338,
      "Ġlarry": 5339,
      "Ġexploitation": 5340,
      "ausible": 5341,
      "Ġvehicle": 5342,
      "Ġlake": 5343,
      "Ġfactor": 5344,
      "Ġextras": 5345,
      "Ġcartoons": 5346,
      "Ġlosing": 5347,
      "Ġwilson": 5348,
      "Ġdoom": 5349,
      "atherine": 5350,
      "Ġroman": 5351,
      "Ġjackie": 5352,
      "Ġruined": 5353,
      "Ġexperienced": 5354,
      "pa": 5355,
      "Ġpit": 5356,
      "Ġkim": 5357,
      "Ġknight": 5358,
      "mond": 5359,
      "Ġsurface": 5360,
      "Ġversions": 5361,
      "Ġswim": 5362,
      "world": 5363,
      "Ġtill": 5364,
      "Ġlud": 5365,
      "Ġshadow": 5366,
      "Ġwashington": 5367,
      "ocr": 5368,
      "beat": 5369,
      "Ġideal": 5370,
      "Ġlearns": 5371,
      "Ġbenef": 5372,
      "Ġqualities": 5373,
      "cont": 5374,
      "wy": 5375,
      "Ġfits": 5376,
      "Ġidiot": 5377,
      "chan": 5378,
      "Ġhearing": 5379,
      "Ġirish": 5380,
      "Ġlargely": 5381,
      "Ġdepicted": 5382,
      "Ġsatisfying": 5383,
      "Ġsegment": 5384,
      "Ġpropaganda": 5385,
      "Ġrick": 5386,
      "Ġanton": 5387,
      "Ġvague": 5388,
      "Ġteens": 5389,
      "Ġangles": 5390,
      "Ġ#": 5391,
      "Ġdrop": 5392,
      "Ġlion": 5393,
      "itement": 5394,
      "Ġchosen": 5395,
      "whel": 5396,
      "Ġspends": 5397,
      "Ġgene": 5398,
      "Ġexperiment": 5399,
      "Ġbrave": 5400,
      "Ġinnoc": 5401,
      "Ġbarbara": 5402,
      "Ġvirtually": 5403,
      "taking": 5404,
      "onel": 5405,
      "Ġtow": 5406,
      "reek": 5407,
      "Ġcommitted": 5408,
      "Ġpursu": 5409,
      "Ġinfluence": 5410,
      "Ġsubstance": 5411,
      "walk": 5412,
      "lying": 5413,
      "Ġreject": 5414,
      "Ġrod": 5415,
      "Ġgrim": 5416,
      "Ġfarm": 5417,
      "Ġerotic": 5418,
      "Ġmountain": 5419,
      "Ġdepartment": 5420,
      "Ġslapstick": 5421,
      "):": 5422,
      "raction": 5423,
      "Ġwerewolf": 5424,
      "cohol": 5425,
      "Ġdescript": 5426,
      "Ġjungle": 5427,
      "iled": 5428,
      "Ġraw": 5429,
      "Ġasleep": 5430,
      "Ġkung": 5431,
      "phas": 5432,
      "Ġwinner": 5433,
      "\"),": 5434,
      "tes": 5435,
      "Ġshark": 5436,
      "Ġjail": 5437,
      "Ġprostit": 5438,
      "Ġdarkness": 5439,
      "Ġlatest": 5440,
      "ns": 5441,
      "rom": 5442,
      "Ġchamp": 5443,
      "orted": 5444,
      "Ġtrick": 5445,
      "Ġ14": 5446,
      "Ġexcitement": 5447,
      "enced": 5448,
      "Ġlin": 5449,
      "Ġlane": 5450,
      "tha": 5451,
      "Ġgrave": 5452,
      "Ġprofessor": 5453,
      "Ġholmes": 5454,
      "Ġrecognize": 5455,
      "vation": 5456,
      "Ġpitch": 5457,
      "eds": 5458,
      "Ġchair": 5459,
      "Ġconfront": 5460,
      "Ġpromising": 5461,
      "Ġvariety": 5462,
      "Ġconvince": 5463,
      "Ġpractically": 5464,
      "Ġmultiple": 5465,
      "Ġfalse": 5466,
      "gas": 5467,
      "erie": 5468,
      "Ġstalk": 5469,
      "Ġpregn": 5470,
      "Ġrobot": 5471,
      "Ġexperiences": 5472,
      "199": 5473,
      "Ġdust": 5474,
      "Ġarrest": 5475,
      "Ġcring": 5476,
      "Ġappropriate": 5477,
      "Ġspeaks": 5478,
      "Ġhalloween": 5479,
      "Ġturkey": 5480,
      "Ġdynam": 5481,
      "Ġ***": 5482,
      "Ġsides": 5483,
      "Ġig": 5484,
      "etime": 5485,
      "Ġmakeup": 5486,
      "Ġprime": 5487,
      "Ġslo": 5488,
      "Ġbelieved": 5489,
      "Ġcostume": 5490,
      "Ġeliz": 5491,
      "rating": 5492,
      "zo": 5493,
      "eral": 5494,
      "Ġtoler": 5495,
      "Ġalcohol": 5496,
      "Ġpatient": 5497,
      "Ġmovement": 5498,
      "Ġlandsc": 5499,
      "Ġmassac": 5500,
      "cula": 5501,
      "ds": 5502,
      "Ġinner": 5503,
      "lem": 5504,
      "kend": 5505,
      "Ġdelic": 5506,
      "Ġsimon": 5507,
      "Ġworthwhile": 5508,
      "Ġjohnson": 5509,
      "Ġstudios": 5510,
      "Ġcaptures": 5511,
      "Ġpatrick": 5512,
      "Ġforest": 5513,
      "Ġveteran": 5514,
      "nn": 5515,
      "Ġbore": 5516,
      "Ġholding": 5517,
      "written": 5518,
      "Ġjewish": 5519,
      "Ġpraise": 5520,
      "Ġsli": 5521,
      "Ġded": 5522,
      "ali": 5523,
      "Ġmethod": 5524,
      "Ġquir": 5525,
      "Ġperformed": 5526,
      "Ġedward": 5527,
      "Ġappealing": 5528,
      "Ġsympathy": 5529,
      "Ġcanadian": 5530,
      "Ġnominated": 5531,
      "Ġbik": 5532,
      "Ġgoth": 5533,
      "Ġanger": 5534,
      "Ġcraw": 5535,
      "Ġcutting": 5536,
      "Ġunfortunate": 5537,
      "Ġconversation": 5538,
      "icate": 5539,
      "Ġsemi": 5540,
      "illed": 5541,
      "Ġoutrage": 5542,
      "ache": 5543,
      "ached": 5544,
      "Ġmurphy": 5545,
      "Ġsuffers": 5546,
      "aust": 5547,
      "chant": 5548,
      "Ġmans": 5549,
      "Ġcalling": 5550,
      "Ġpresents": 5551,
      "gm": 5552,
      "Ġbern": 5553,
      "cho": 5554,
      "Ġrival": 5555,
      "apping": 5556,
      "Ġfeatured": 5557,
      "Ġstructure": 5558,
      "Ġcous": 5559,
      "ilogy": 5560,
      "Ġmock": 5561,
      "Ġkore": 5562,
      "Ġguilty": 5563,
      "198": 5564,
      "Ġtraining": 5565,
      ",'": 5566,
      "via": 5567,
      "Ġscale": 5568,
      "Ġcarpent": 5569,
      "Ġaccents": 5570,
      "Ġacqu": 5571,
      "197": 5572,
      "Ġcontinuity": 5573,
      "bour": 5574,
      "vative": 5575,
      "Ġpenn": 5576,
      "Ġja": 5577,
      "Ġbutt": 5578,
      "Ġmyth": 5579,
      "Ġhandled": 5580,
      "Ġconfess": 5581,
      "Ġsuspenseful": 5582,
      "Ġpreviously": 5583,
      "Ġstatement": 5584,
      "Ġhanging": 5585,
      "Ġrussell": 5586,
      "Ġjoseph": 5587,
      "Ġwear": 5588,
      "Ġabuse": 5589,
      "Ġcontact": 5590,
      "Ġcommit": 5591,
      "Ġbroadway": 5592,
      "Ġrelatively": 5593,
      "Ġvietnam": 5594,
      "jud": 5595,
      "Ġevol": 5596,
      "Ġcurt": 5597,
      "Ġposition": 5598,
      "ĠclichÃ©d": 5599,
      "Ġincreas": 5600,
      "Ġdegree": 5601,
      "Ġfix": 5602,
      "Ġpian": 5603,
      "Ġrat": 5604,
      "Ġchose": 5605,
      "gging": 5606,
      "Ġ1960": 5607,
      "Ġcategory": 5608,
      "Ġnichol": 5609,
      "Ġ0": 5610,
      "roph": 5611,
      "Ġoffensive": 5612,
      "Ġflight": 5613,
      "Ġreminis": 5614,
      "Ġseasons": 5615,
      "Ġbothered": 5616,
      "Ġexecution": 5617,
      "Ġobsessed": 5618,
      "horror": 5619,
      "Ġextraordinary": 5620,
      "Ġmort": 5621,
      "Ġneat": 5622,
      "udes": 5623,
      "Ġeverywhere": 5624,
      "Ġbitter": 5625,
      "Ġfavorites": 5626,
      "Ġinitial": 5627,
      "Ġelizabeth": 5628,
      "Ġtouches": 5629,
      "hearted": 5630,
      "Ġatrocious": 5631,
      "Ġunconvin": 5632,
      "yc": 5633,
      "Ġbeast": 5634,
      "Ġkate": 5635,
      "Ġroger": 5636,
      "aret": 5637,
      "Ġ25": 5638,
      "Ġemphas": 5639,
      "Ġpolic": 5640,
      "Ġwesterns": 5641,
      "Ġcrying": 5642,
      "including": 5643,
      "Ġclaims": 5644,
      "cause": 5645,
      "Ġll": 5646,
      "ighter": 5647,
      "hey": 5648,
      "Ġanna": 5649,
      "Ġrule": 5650,
      "Ġmassive": 5651,
      "craft": 5652,
      "Ġloyal": 5653,
      "Ġsaturday": 5654,
      "!),": 5655,
      "Ġire": 5656,
      "Ġanime": 5657,
      "Ġliber": 5658,
      "Ġkath": 5659,
      "ume": 5660,
      "Ġlog": 5661,
      "Ġdisag": 5662,
      "Ġdirectly": 5663,
      "Ġcheese": 5664,
      "Ġsupernatural": 5665,
      "umbling": 5666,
      "Ġfigured": 5667,
      "Ġforgettable": 5668,
      "Ġparker": 5669,
      "Ġludic": 5670,
      "lan": 5671,
      "Ġpoign": 5672,
      "tended": 5673,
      "Ġsurprises": 5674,
      "Ġaccidentally": 5675,
      "Ġafrica": 5676,
      "Ġdemonstr": 5677,
      "bit": 5678,
      "dies": 5679,
      "Ġreun": 5680,
      "Ġdean": 5681,
      "Ġexagger": 5682,
      "ago": 5683,
      "Ġcourage": 5684,
      "Ġdestroyed": 5685,
      "Ġcowboy": 5686,
      "Ġgranted": 5687,
      "Ġsir": 5688,
      "Ġsne": 5689,
      "Ġcooper": 5690,
      "atives": 5691,
      "Ġsection": 5692,
      "ffman": 5693,
      "Ġoverlook": 5694,
      "Ġserves": 5695,
      "Ġwarri": 5696,
      "Ġconcert": 5697,
      "Ġpolitics": 5698,
      "Ġunlikely": 5699,
      "Ġmelodrama": 5700,
      "Ġstom": 5701,
      "abe": 5702,
      "Ġ16": 5703,
      "Ġrealizes": 5704,
      "achel": 5705,
      "Ġminds": 5706,
      "Ġimprove": 5707,
      "Ġeastwood": 5708,
      "Ġintellectual": 5709,
      "ibal": 5710,
      "Ġreporter": 5711,
      "Ġjeal": 5712,
      "Ġsorts": 5713,
      "Ġadventures": 5714,
      "Ġtrilogy": 5715,
      "Ġspite": 5716,
      "Ġsecurity": 5717,
      "Ġroberts": 5718,
      "Ġcust": 5719,
      "Ġchina": 5720,
      "Ġvent": 5721,
      "Ġtrapped": 5722,
      "Ġschem": 5723,
      "Ġdeaths": 5724,
      "Ġamazingly": 5725,
      "Ġprofound": 5726,
      "Ġrequired": 5727,
      "Ġurban": 5728,
      "Ġprepared": 5729,
      "Ġtag": 5730,
      "ety": 5731,
      "ugs": 5732,
      "Ġpulls": 5733,
      "Ġcomplain": 5734,
      "Ġcovered": 5735,
      "Ġcalifornia": 5736,
      "Ġaccompan": 5737,
      "wow": 5738,
      "Ġtask": 5739,
      "Ġcitiz": 5740,
      "Ġdrew": 5741,
      "Ġnation": 5742,
      "uted": 5743,
      "Ġdeadly": 5744,
      "Ġabandoned": 5745,
      "Ġcave": 5746,
      "Ġdennis": 5747,
      "ulp": 5748,
      "Ġlights": 5749,
      "Ġped": 5750,
      "ito": 5751,
      "Ġdonald": 5752,
      "Ġeffectively": 5753,
      "Ġexcess": 5754,
      "Ġluke": 5755,
      "Ġcloser": 5756,
      "dim": 5757,
      "Ġain": 5758,
      "Ġsink": 5759,
      "Ġpile": 5760,
      "Ġworry": 5761,
      "oken": 5762,
      "Ġstereotypical": 5763,
      "Ġhaunted": 5764,
      "Ġsummary": 5765,
      "Ġmst": 5766,
      "Ġfet": 5767,
      "Ġnostal": 5768,
      "Ġbrooks": 5769,
      "Ġcolors": 5770,
      "Ġrenting": 5771,
      "Ġsensitive": 5772,
      "Ġ1930": 5773,
      "mich": 5774,
      "reh": 5775,
      "Ġfi": 5776,
      "ching": 5777,
      "Ġcarol": 5778,
      "Ġtarzan": 5779,
      "Ġfrightening": 5780,
      "ez": 5781,
      "Ġpaced": 5782,
      "anity": 5783,
      "ils": 5784,
      "Ġcontain": 5785,
      "Ġremotely": 5786,
      "his": 5787,
      "Ġtong": 5788,
      "Ġappl": 5789,
      "clear": 5790,
      "Ġstatus": 5791,
      "breaking": 5792,
      "Ġreputation": 5793,
      "lim": 5794,
      "itious": 5795,
      "Ġgreater": 5796,
      "Ġaddict": 5797,
      "Ġnarration": 5798,
      "Ġhomosexual": 5799,
      "Ġproductions": 5800,
      "Ġinterviews": 5801,
      "Ġweekend": 5802,
      "Ġfictional": 5803,
      "Ġstolen": 5804,
      "\"?": 5805,
      "Ġren": 5806,
      "Ġrepet": 5807,
      "Ġbreaking": 5808,
      "something": 5809,
      "Ġweapons": 5810,
      "Ġhong": 5811,
      "Ġlift": 5812,
      "Ġarms": 5813,
      "Ġgrues": 5814,
      "Ġimagery": 5815,
      "coming": 5816,
      "Ġtremend": 5817,
      "Ġfocused": 5818,
      "Ġmistakes": 5819,
      "Ġmexican": 5820,
      "Ġhired": 5821,
      "omen": 5822,
      "Ġpros": 5823,
      "Ġdemand": 5824,
      "Ġdemons": 5825,
      "hard": 5826,
      "kind": 5827,
      "ndy": 5828,
      "Ġvon": 5829,
      "olic": 5830,
      "Ġsurf": 5831,
      "Ġdistribut": 5832,
      "Ġcritical": 5833,
      "ika": 5834,
      "Ġconvinced": 5835,
      "Ġencou": 5836,
      "Ġoccasional": 5837,
      "Ġlegendary": 5838,
      "bar": 5839,
      "gun": 5840,
      "mod": 5841,
      "atically": 5842,
      "Ġdude": 5843,
      "Ġupset": 5844,
      "Ġseek": 5845,
      "Ġpreview": 5846,
      "Ġcoinc": 5847,
      "Ġterm": 5848,
      "Ġmainstream": 5849,
      "Ġindia": 5850,
      "Ġdistinct": 5851,
      "iat": 5852,
      "Ġheight": 5853,
      "Ġconcent": 5854,
      "Ġpainting": 5855,
      "Ġruin": 5856,
      "Ġfulci": 5857,
      "bed": 5858,
      "dr": 5859,
      "Ġoz": 5860,
      "Ġstorm": 5861,
      "ado": 5862,
      "Ġbetty": 5863,
      "Ġarrives": 5864,
      "zil": 5865,
      "lls": 5866,
      "Ġvast": 5867,
      "Ġdeeper": 5868,
      "Ġrights": 5869,
      "Ġsounded": 5870,
      "Ġdevice": 5871,
      "Ġfunnier": 5872,
      "Ġclosing": 5873,
      "Ġcarpenter": 5874,
      "Ġgruesome": 5875,
      "11": 5876,
      "gra": 5877,
      "sn": 5878,
      "Ġtheory": 5879,
      "lection": 5880,
      "Ġrush": 5881,
      "Ġmeat": 5882,
      "Ġunre": 5883,
      "Ġscenario": 5884,
      "Ġhoffman": 5885,
      "Ġcontest": 5886,
      "Ġsuperf": 5887,
      "Ġdepiction": 5888,
      "Ġraised": 5889,
      "Ġchoices": 5890,
      "Ġfranch": 5891,
      "Ġmildly": 5892,
      "Ġba": 5893,
      "Ġhind": 5894,
      "Ġplaced": 5895,
      "Ġspring": 5896,
      "ression": 5897,
      "Ġunderground": 5898,
      "Ġdecades": 5899,
      "Ġhelen": 5900,
      "Ġexplains": 5901,
      "Ġpaint": 5902,
      "Ġcaptiv": 5903,
      "Ġstayed": 5904,
      "Ġcombined": 5905,
      "Ġheavily": 5906,
      "Ġlifetime": 5907,
      "Ġvacation": 5908,
      "Ġmassacre": 5909,
      "ioned": 5910,
      "Ġunw": 5911,
      "Ġclark": 5912,
      "Ġteeth": 5913,
      "Ġparticip": 5914,
      "Ġgritty": 5915,
      "Ġstranger": 5916,
      "Ġfairy": 5917,
      "Ġpuzz": 5918,
      "Ġdivor": 5919,
      "20": 5920,
      "dis": 5921,
      "lle": 5922,
      "llo": 5923,
      "Ġnurse": 5924,
      "ament": 5925,
      "Ġchic": 5926,
      "plays": 5927,
      "Ġwarned": 5928,
      "Ġlistening": 5929,
      "Ġtreasure": 5930,
      "Ġnazi": 5931,
      "Ġstomach": 5932,
      "Ġlum": 5933,
      "Ġisol": 5934,
      "kets": 5935,
      "Ġdozen": 5936,
      "Ġblah": 5937,
      "Ġamazed": 5938,
      "Ġdriven": 5939,
      "Ġfigures": 5940,
      "Ġpaying": 5941,
      "Ġfocuses": 5942,
      "Ġregarding": 5943,
      "Ġnecessarily": 5944,
      "cil": 5945,
      "Ġtree": 5946,
      "Ġara": 5947,
      "Ġoverwhel": 5948,
      "Ġserve": 5949,
      "new": 5950,
      "Ġbuying": 5951,
      "Ġmature": 5952,
      "Ġsuperman": 5953,
      "Ġswed": 5954,
      "Ġnonetheless": 5955,
      "Ġoffered": 5956,
      "Ġdownright": 5957,
      "Ġbuck": 5958,
      "Ġexamples": 5959,
      "Ġmurderer": 5960,
      "Ġtransform": 5961,
      "Ġchanging": 5962,
      "Ġtechnically": 5963,
      "Ġfaithful": 5964,
      "Ġbaseball": 5965,
      "fall": 5966,
      "Ġdece": 5967,
      "Ġblown": 5968,
      "Ġcrude": 5969,
      "Ġmagical": 5970,
      "Ġthankfully": 5971,
      "Ġblockbuster": 5972,
      "fight": 5973,
      "Ġcode": 5974,
      "Ġkane": 5975,
      "Ġplant": 5976,
      "Ġcoach": 5977,
      "Ġcheer": 5978,
      "Ġsubsequ": 5979,
      "Ġcorpor": 5980,
      "Ġreveals": 5981,
      "Ġdinner": 5982,
      "Ġigno": 5983,
      "Ġpor": 5984,
      "Ġgro": 5985,
      "ales": 5986,
      "Ġwhoever": 5987,
      "Ġafterno": 5988,
      "Ġsinatra": 5989,
      "Ġshorts": 5990,
      "Ġcontribut": 5991,
      "Ġunderstood": 5992,
      "Ġunconvincing": 5993,
      "case": 5994,
      "Ġtoy": 5995,
      "Ġgall": 5996,
      "ilton": 5997,
      "Ġvia": 5998,
      "Ġkinds": 5999,
      "Ġsouthern": 6000,
      "Ġuninteresting": 6001,
      "Ġwalter": 6002,
      "fun": 6003,
      "sm": 6004,
      "Ġnotor": 6005,
      "Ġcharge": 6006,
      "Ġspy": 6007,
      "Ġblat": 6008,
      "Ġhole": 6009,
      "Ġobno": 6010,
      "Ġscreening": 6011,
      "Ġdracula": 6012,
      "Ġlawyer": 6013,
      "Ġcapital": 6014,
      "Ġelder": 6015,
      "har": 6016,
      "Ġthro": 6017,
      "Ġwand": 6018,
      "Ġfriday": 6019,
      "Ġusa": 6020,
      "Ġthrows": 6021,
      "spired": 6022,
      "Ġoriginality": 6023,
      "Ġirre": 6024,
      "Ġcomplicated": 6025,
      "Ġjulia": 6026,
      "Ġdesigned": 6027,
      "je": 6028,
      "ww": 6029,
      "Ġbetray": 6030,
      "Ġhalfway": 6031,
      "Ġcampy": 6032,
      "Ġmiller": 6033,
      "Ġangle": 6034,
      "Ġlonely": 6035,
      "maybe": 6036,
      "Ġgoofy": 6037,
      "ule": 6038,
      "Ġtorn": 6039,
      "Ġjay": 6040,
      "rol": 6041,
      "Ġintens": 6042,
      "Ġcock": 6043,
      "Ġformat": 6044,
      "Ġinitially": 6045,
      "Ġweapon": 6046,
      "Ġpregnant": 6047,
      "Ġludicrous": 6048,
      "oe": 6049,
      "Ġtic": 6050,
      "Ġchap": 6051,
      "Ġscares": 6052,
      "Ġalt": 6053,
      "Ġtiming": 6054,
      "Ġstrict": 6055,
      "Ġprincess": 6056,
      "Ġsi": 6057,
      "Ġdub": 6058,
      "Ġlem": 6059,
      "umble": 6060,
      "oses": 6061,
      "aki": 6062,
      "Ġ17": 6063,
      "Ġdelivery": 6064,
      "belief": 6065,
      "Ġsucceeds": 6066,
      "spoilers": 6067,
      "Ġwelcome": 6068,
      "Ġsunday": 6069,
      "?).": 6070,
      "bing": 6071,
      "fred": 6072,
      "lig": 6073,
      "Ġinhab": 6074,
      "Ġsov": 6075,
      "Ġalright": 6076,
      "Ġfacial": 6077,
      "Ġthrowing": 6078,
      "Ġadding": 6079,
      "Ġindie": 6080,
      "Ġpassing": 6081,
      "Ġmetal": 6082,
      "Ġintegr": 6083,
      "Ġmickey": 6084,
      "Ġsignificant": 6085,
      "Ġminimal": 6086,
      "Ġthumb": 6087,
      "Ġpac": 6088,
      "ida": 6089,
      "Ġrolling": 6090,
      "Ġviews": 6091,
      "Ġphen": 6092,
      "Ġhandle": 6093,
      "Ġcauses": 6094,
      "Ġracism": 6095,
      "Ġoce": 6096,
      "Ġwelles": 6097,
      "Ġparall": 6098,
      "Ġberg": 6099,
      "Ġignore": 6100,
      "Ġnuclear": 6101,
      "great": 6102,
      "ses": 6103,
      "otion": 6104,
      "Ġcliff": 6105,
      "Ġprevent": 6106,
      "Ġjoin": 6107,
      "Ġserved": 6108,
      "Ġattempting": 6109,
      "Ġratings": 6110,
      "Ġcondition": 6111,
      "Ġignor": 6112,
      "Ġquirky": 6113,
      "mate": 6114,
      "Ġnude": 6115,
      "Ġstays": 6116,
      "Ġrings": 6117,
      "ulk": 6118,
      "Ġborder": 6119,
      "dimensional": 6120,
      "Ġhi": 6121,
      "Ġrank": 6122,
      "Ġjac": 6123,
      "ception": 6124,
      "Ġdesperately": 6125,
      "Ġracist": 6126,
      "Ġassassin": 6127,
      "iques": 6128,
      "nic": 6129,
      "Ġeveryday": 6130,
      "ugos": 6131,
      "Ġsevere": 6132,
      "Ġfourth": 6133,
      "Ġstruggling": 6134,
      "Ġanswers": 6135,
      "Ġdragon": 6136,
      "Ġassistant": 6137,
      "Ġdescription": 6138,
      "Ġfbi": 6139,
      "Ġpad": 6140,
      "Ġpitt": 6141,
      "asant": 6142,
      "Ġunbe": 6143,
      "Ġbrun": 6144,
      "Ġbeloved": 6145,
      "Ġstupidity": 6146,
      "Ġmagaz": 6147,
      "Ġlearning": 6148,
      "ffe": 6149,
      "Ġecc": 6150,
      "Ġlibr": 6151,
      "Ġtear": 6152,
      "Ġfond": 6153,
      "Ġphill": 6154,
      "Ġjobs": 6155,
      "Ġamongst": 6156,
      "Ġdollar": 6157,
      "Ġinternet": 6158,
      "Ġdrinking": 6159,
      "Ġwwii": 6160,
      "Ġ**": 6161,
      "Ġbush": 6162,
      "race": 6163,
      "Ġincor": 6164,
      "Ġdaniel": 6165,
      "Ġappreciated": 6166,
      "Ġexpressions": 6167,
      "Ġdaily": 6168,
      "Ġinspiration": 6169,
      "Ġafternoon": 6170,
      "aves": 6171,
      "called": 6172,
      "Ġmgm": 6173,
      "Ġinj": 6174,
      "style": 6175,
      "Ġreward": 6176,
      "Ġkenn": 6177,
      "Ġkurt": 6178,
      "Ġcomical": 6179,
      "antage": 6180,
      "Ġpoet": 6181,
      "Ġguar": 6182,
      "acle": 6183,
      "Ġwarner": 6184,
      "nery": 6185,
      "Ġmetap": 6186,
      "Ġproperly": 6187,
      "Ġlloyd": 6188,
      "fest": 6189,
      "Ġiv": 6190,
      "asm": 6191,
      "Ġcarried": 6192,
      "Ġburton": 6193,
      "Ġdisagree": 6194,
      "dra": 6195,
      "Ġbot": 6196,
      "lected": 6197,
      "Ġleague": 6198,
      "Ġdisbelief": 6199,
      "Ġartists": 6200,
      "Ġextent": 6201,
      "Ġsteps": 6202,
      "Ġintroduction": 6203,
      "ught": 6204,
      "Ġexer": 6205,
      "Ġstorytelling": 6206,
      "Ġcultural": 6207,
      "Ġjournal": 6208,
      "Ġsarah": 6209,
      "run": 6210,
      "Ġhust": 6211,
      "story": 6212,
      "chy": 6213,
      "Ġcarries": 6214,
      "Ġze": 6215,
      "Ġdrives": 6216,
      "Ġtouched": 6217,
      "Ġpurely": 6218,
      "Ġmirror": 6219,
      "Ġsophistic": 6220,
      "Ġsanta": 6221,
      "Ġpi": 6222,
      "anny": 6223,
      "ada": 6224,
      "udge": 6225,
      "Ġargu": 6226,
      "Ġsport": 6227,
      "Ġmedical": 6228,
      "Ġsurviv": 6229,
      "sen": 6230,
      "Ġpir": 6231,
      "amous": 6232,
      "Ġcomedian": 6233,
      "Ġhelping": 6234,
      "hold": 6235,
      "Ġnovels": 6236,
      "Ġmadness": 6237,
      "Ġchalleng": 6238,
      "Ġprincip": 6239,
      "Ġobnoxious": 6240,
      "sl": 6241,
      "uk": 6242,
      "Ġwra": 6243,
      "rend": 6244,
      "only": 6245,
      "Ġkrist": 6246,
      "Ġdiam": 6247,
      "Ġadop": 6248,
      "Ġbollywood": 6249,
      "Ġcurse": 6250,
      "Ġhammer": 6251,
      "Ġreminiscent": 6252,
      "ores": 6253,
      "ingers": 6254,
      "Ġpier": 6255,
      "ani": 6256,
      "idents": 6257,
      "Ġenjoying": 6258,
      "Ġrelated": 6259,
      "Ġstarred": 6260,
      "Ġtitles": 6261,
      "except": 6262,
      "liners": 6263,
      "Ġitaly": 6264,
      "Ġsleeping": 6265,
      "Ġargent": 6266,
      "Ġdetermined": 6267,
      "imag": 6268,
      "Ġalb": 6269,
      "Ġoutf": 6270,
      "umph": 6271,
      "Ġbasis": 6272,
      "Ġassign": 6273,
      "black": 6274,
      "going": 6275,
      "worth": 6276,
      "Ġhip": 6277,
      "owed": 6278,
      "Ġstunt": 6279,
      "adays": 6280,
      "Ġweight": 6281,
      "actic": 6282,
      "Ġflor": 6283,
      "Ġentry": 6284,
      "aughters": 6285,
      "Ġretarded": 6286,
      "Ġattacks": 6287,
      "Ġaccepted": 6288,
      "Ġrisk": 6289,
      "big": 6290,
      "list": 6291,
      "Ġvoy": 6292,
      "Ġwears": 6293,
      "Ġcorn": 6294,
      "Ġhugh": 6295,
      "Ġreference": 6296,
      "Ġinterpretation": 6297,
      "original": 6298,
      "80": 6299,
      "happy": 6300,
      "Ġtax": 6301,
      "ari": 6302,
      "Ġeve": 6303,
      "Ġshr": 6304,
      "Ġsham": 6305,
      "...\"": 6306,
      "beit": 6307,
      "ifies": 6308,
      "Ġsinister": 6309,
      "Ġcredible": 6310,
      "Ġpatri": 6311,
      "Ġwoody": 6312,
      "Ġflawed": 6313,
      "cere": 6314,
      "sa": 6315,
      "Ġbol": 6316,
      "Ġcub": 6317,
      "Ġlas": 6318,
      "rob": 6319,
      "Ġplastic": 6320,
      "iger": 6321,
      "Ġsple": 6322,
      "Ġprete": 6323,
      "Ġcorner": 6324,
      "Ġannoun": 6325,
      "Ġtales": 6326,
      "Ġcredibility": 6327,
      "Ġgraphics": 6328,
      "Ġmentally": 6329,
      "hib": 6330,
      "Ġhes": 6331,
      "Ġfed": 6332,
      "Ġpig": 6333,
      "Ġshape": 6334,
      "tered": 6335,
      "Ġnotable": 6336,
      "Ġcole": 6337,
      "Ġmiscast": 6338,
      "Ġmotor": 6339,
      "Ġsusan": 6340,
      "Ġsettings": 6341,
      "Ġcontroversial": 6342,
      "utherland": 6343,
      "Ġrey": 6344,
      "Ġmanager": 6345,
      "Ġmarg": 6346,
      "Ġconsum": 6347,
      "Ġfreddy": 6348,
      "Ġthousands": 6349,
      "Ġseparate": 6350,
      "cal": 6351,
      "dog": 6352,
      "Ġaston": 6353,
      "Ġhappiness": 6354,
      "comedy": 6355,
      "Ġpicks": 6356,
      "Ġstrangely": 6357,
      "Ġinnocence": 6358,
      "ties": 6359,
      "isher": 6360,
      "ifi": 6361,
      "Ġcaring": 6362,
      "---": 6363,
      "Ġsincere": 6364,
      "Ġphilip": 6365,
      "Ġ:)": 6366,
      "Ġstylish": 6367,
      "burn": 6368,
      "yth": 6369,
      "Ġtune": 6370,
      "Ġbald": 6371,
      "Ġlisa": 6372,
      "Ġgle": 6373,
      "imm": 6374,
      "Ġsha": 6375,
      "Ġscreenwriter": 6376,
      "Ġperfection": 6377,
      "Ġhonor": 6378,
      "Ġtechnique": 6379,
      "Ġaustralia": 6380,
      "Ġescapes": 6381,
      "Ġashamed": 6382,
      "iffer": 6383,
      "Ġlazy": 6384,
      "Ġjaw": 6385,
      "Ġexists": 6386,
      "Ġnowadays": 6387,
      "Ġresist": 6388,
      "Ġconfusion": 6389,
      "Ġelev": 6390,
      "Ġcountries": 6391,
      "Ġtommy": 6392,
      "Ġrevolves": 6393,
      "Ġimmense": 6394,
      "Ġfabulous": 6395,
      "Ġbattles": 6396,
      "wyck": 6397,
      "Ġcousin": 6398,
      "pse": 6399,
      "Ġtense": 6400,
      "llen": 6401,
      "Ġkaren": 6402,
      "aude": 6403,
      "Ġcharl": 6404,
      "Ġhardy": 6405,
      "Ġtopic": 6406,
      "Ġdeliber": 6407,
      "Ġattacked": 6408,
      "pol": 6409,
      "sky": 6410,
      "Ġwanna": 6411,
      "Ġgather": 6412,
      "ouses": 6413,
      "Ġcance": 6414,
      "Ġboot": 6415,
      "ibilities": 6416,
      "laim": 6417,
      "Ġtab": 6418,
      "Ġwreck": 6419,
      "Ġgab": 6420,
      "opath": 6421,
      "Ġunion": 6422,
      "Ġmupp": 6423,
      "prise": 6424,
      "Ġportra": 6425,
      "Ġcarrying": 6426,
      "Ġ1940": 6427,
      "too": 6428,
      "va": 6429,
      "Ġdave": 6430,
      "Ġree": 6431,
      "Ġchilling": 6432,
      "antino": 6433,
      "Ġneck": 6434,
      "Ġgreatly": 6435,
      "Ġinteract": 6436,
      "Ġhorrific": 6437,
      "Ġstruggles": 6438,
      "Ġcriminals": 6439,
      "Ġbalance": 6440,
      "Ġvincent": 6441,
      "Ġtongue": 6442,
      "hill": 6443,
      "ipping": 6444,
      "Ġaunt": 6445,
      "Ġbare": 6446,
      "Ġmath": 6447,
      "Ġstell": 6448,
      "Ġnose": 6449,
      "Ġdisgu": 6450,
      "Ġflu": 6451,
      "together": 6452,
      "Ġanticip": 6453,
      "Ġlaura": 6454,
      "Ġequal": 6455,
      "Ġatmospher": 6456,
      "Ġreplaced": 6457,
      "Ġmexico": 6458,
      "Ġpacino": 6459,
      "ipped": 6460,
      "sor": 6461,
      "water": 6462,
      "Ġbour": 6463,
      "Ġpool": 6464,
      "Ġlust": 6465,
      "Ġnom": 6466,
      "Ġbackd": 6467,
      "Ġcontract": 6468,
      "Ġtriumph": 6469,
      "Ġrobber": 6470,
      "Ġexceptional": 6471,
      "Ġstops": 6472,
      "gypt": 6473,
      "Ġgripping": 6474,
      "Ġbergman": 6475,
      "Ġsutherland": 6476,
      "Ġcaine": 6477,
      "Ġandre": 6478,
      "Ġinvis": 6479,
      "Ġnights": 6480,
      "Ġwalker": 6481,
      "Ġsleazy": 6482,
      "ification": 6483,
      "Ġbroadcast": 6484,
      "Ġfulf": 6485,
      "Ġfrequently": 6486,
      "Ġchallenge": 6487,
      "Ġpoignant": 6488,
      "Ġfranchise": 6489,
      "ona": 6490,
      "stop": 6491,
      "forward": 6492,
      "Ġwhereas": 6493,
      "Ġproof": 6494,
      "Ġmindless": 6495,
      "Ġopened": 6496,
      "Ġadvantage": 6497,
      "Ġguessing": 6498,
      "Ġembarrassed": 6499,
      "Ġintensity": 6500,
      "bal": 6501,
      "Ġfirm": 6502,
      "order": 6503,
      "Ġpg": 6504,
      "ila": 6505,
      "Ġstoo": 6506,
      "alley": 6507,
      "Ġcreation": 6508,
      "Ġlessons": 6509,
      "sett": 6510,
      "iveness": 6511,
      "Ġcynical": 6512,
      "gia": 6513,
      "mr": 6514,
      "Ġtam": 6515,
      "quis": 6516,
      "plic": 6517,
      "Ġblair": 6518,
      "forms": 6519,
      "Ġletting": 6520,
      "Ġfallen": 6521,
      "Ġironic": 6522,
      "Ġillust": 6523,
      "Ġidiotic": 6524,
      "Ġstanwyck": 6525,
      "Ġwealthy": 6526,
      "Ġocean": 6527,
      "Ġnol": 6528,
      "rig": 6529,
      "Ġclips": 6530,
      "Ġarrog": 6531,
      "cia": 6532,
      "ishment": 6533,
      "Ġdislike": 6534,
      "Ġscripts": 6535,
      "ointed": 6536,
      "Ġsatan": 6537,
      "Ġadmitted": 6538,
      "Ġpresentation": 6539,
      "Ġlaid": 6540,
      "okay": 6541,
      "Ġfortunately": 6542,
      "Ġsplend": 6543,
      "Ġicon": 6544,
      "rem": 6545,
      "Ġcatherine": 6546,
      "inging": 6547,
      "also": 6548,
      "Ġwash": 6549,
      "Ġlovable": 6550,
      "Ġfinan": 6551,
      "aze": 6552,
      "Ġmatrix": 6553,
      "Ġrestaur": 6554,
      "chester": 6555,
      "Ġpowell": 6556,
      "cÃ©": 6557,
      "oration": 6558,
      "Ġdaughters": 6559,
      "Ġgreek": 6560,
      "christ": 6561,
      "Ġpray": 6562,
      "Ġspell": 6563,
      "lett": 6564,
      "Ġ1990": 6565,
      "Ġoliver": 6566,
      "Ġunforget": 6567,
      "Ġsoviet": 6568,
      "Ġtempt": 6569,
      "Ġdud": 6570,
      "Ġdare": 6571,
      "Ġduck": 6572,
      "Ġnine": 6573,
      "Ġasp": 6574,
      "Ġguide": 6575,
      "Ġrelax": 6576,
      "Ġvideos": 6577,
      "Ġsexuality": 6578,
      "Ġstunts": 6579,
      "Ġcases": 6580,
      "Ġregardless": 6581,
      "Ġcolumbo": 6582,
      "Ġdiamond": 6583,
      "ease": 6584,
      "gent": 6585,
      "Ġcos": 6586,
      "Ġvivid": 6587,
      "Ġclint": 6588,
      "Ġarr": 6589,
      "Ġbroke": 6590,
      "Ġpsychiat": 6591,
      "Ġfemin": 6592,
      "Ġhyster": 6593,
      "mates": 6594,
      "put": 6595,
      "Ġod": 6596,
      "step": 6597,
      "Ġjumps": 6598,
      "road": 6599,
      "Ġconsists": 6600,
      "Ġoccup": 6601,
      "semble": 6602,
      "Ġsuggests": 6603,
      "Ġgrey": 6604,
      "Ġrepeat": 6605,
      "Ġsearching": 6606,
      "Ġgriff": 6607,
      "Ġimaginative": 6608,
      "Ġreynold": 6609,
      "Ġtall": 6610,
      "Ġmarsh": 6611,
      "ller": 6612,
      "Ġegypt": 6613,
      "Ġrender": 6614,
      "Ġsevent": 6615,
      "Ġfoster": 6616,
      "Ġuseless": 6617,
      "Ġ2001": 6618,
      "Ġburns": 6619,
      "woman": 6620,
      "Ġthirty": 6621,
      "Ġric": 6622,
      "Ġseeking": 6623,
      "lif": 6624,
      "Ġstealing": 6625,
      "Ġmatth": 6626,
      "Ġpresum": 6627,
      "Ġraise": 6628,
      "Ġmillions": 6629,
      "Ġscientists": 6630,
      "Ġbreathtaking": 6631,
      "michael": 6632,
      "Ġkennedy": 6633,
      "Ġsket": 6634,
      "Ġnancy": 6635,
      "Ġnoted": 6636,
      "Ġweb": 6637,
      "Ġexch": 6638,
      "Ġterrit": 6639,
      "Ġmarie": 6640,
      "Ġappearances": 6641,
      "Ġtechniques": 6642,
      "Ġconvict": 6643,
      "Ġcameron": 6644,
      "Ġthousand": 6645,
      "aid": 6646,
      "Ġthief": 6647,
      "Ġsings": 6648,
      "Ġhiding": 6649,
      "Ġfel": 6650,
      "Ġetern": 6651,
      "amor": 6652,
      "Ġcarn": 6653,
      "Ġfriendly": 6654,
      "Ġofficial": 6655,
      "Ġphysically": 6656,
      "Ġq": 6657,
      "Ġaired": 6658,
      "inn": 6659,
      "Ġbart": 6660,
      "Ġwasting": 6661,
      "Ġalas": 6662,
      "Ġconven": 6663,
      "ounding": 6664,
      "Ġinstall": 6665,
      "Ġourselves": 6666,
      "Ġparano": 6667,
      "Ġattempted": 6668,
      "Ġtransfer": 6669,
      "Ġflynn": 6670,
      "Ġdawn": 6671,
      "Ġboredom": 6672,
      "Ġautom": 6673,
      "Ġelectric": 6674,
      "Ġmarvelous": 6675,
      "Ġconsequences": 6676,
      "==": 6677,
      "oub": 6678,
      "Ġtoile": 6679,
      "Ġlying": 6680,
      "Ġdear": 6681,
      "Ġlegs": 6682,
      "Ġclar": 6683,
      "Ġtender": 6684,
      "Ġaccess": 6685,
      "Ġinstantly": 6686,
      "Ġbritain": 6687,
      "Ġmusicals": 6688,
      "Ġobsession": 6689,
      "Ġscratch": 6690,
      "Ġspecific": 6691,
      "Ġax": 6692,
      "Ġol": 6693,
      "Ġhipp": 6694,
      "Ġeager": 6695,
      "ader": 6696,
      "ams": 6697,
      "Ġspook": 6698,
      "Ġoblig": 6699,
      "Ġwarn": 6700,
      "Ġmonkey": 6701,
      "Ġghosts": 6702,
      "Ġsacrif": 6703,
      "30": 6704,
      "wing": 6705,
      "Ġcul": 6706,
      "stone": 6707,
      "Ġral": 6708,
      "Ġconnery": 6709,
      "Ġenorm": 6710,
      "Ġwheel": 6711,
      "Ġripped": 6712,
      "Ġfreeman": 6713,
      "!!!!!!!!": 6714,
      "Ġholiday": 6715,
      "Ġsuffered": 6716,
      "ype": 6717,
      "Ġwicked": 6718,
      "Ġshy": 6719,
      "Ġquote": 6720,
      "Ġhorrend": 6721,
      "Ġtrial": 6722,
      "Ġsuccessfully": 6723,
      "Ġmeaningful": 6724,
      "kick": 6725,
      "rum": 6726,
      "Ġsally": 6727,
      "erior": 6728,
      "Ġbang": 6729,
      "Ġhence": 6730,
      "Ġconspir": 6731,
      "plots": 6732,
      "Ġspoken": 6733,
      "white": 6734,
      "Ġneedless": 6735,
      "Ġlesser": 6736,
      "......": 6737,
      "Ġirony": 6738,
      "Ġmichelle": 6739,
      "Ġessential": 6740,
      "Ġsmooth": 6741,
      "Ġtribute": 6742,
      "Ġandrews": 6743,
      "Ġcind": 6744,
      "another": 6745,
      "Ġgain": 6746,
      "vet": 6747,
      "Ġviv": 6748,
      "ishes": 6749,
      "Ġsaves": 6750,
      "Ġattraction": 6751,
      "ibl": 6752,
      "Ġrefuses": 6753,
      "Ġvictoria": 6754,
      "Ġhooked": 6755,
      "Ġestablished": 6756,
      "Ġhundreds": 6757,
      "Ġintentions": 6758,
      "Ġreynolds": 6759,
      "vi": 6760,
      "vably": 6761,
      "Ġthread": 6762,
      "Ġhud": 6763,
      "Ġbeer": 6764,
      "Ġka": 6765,
      "Ġatl": 6766,
      "orses": 6767,
      "Ġbugs": 6768,
      "rified": 6769,
      "Ġstrip": 6770,
      "Ġprotagonists": 6771,
      "Ġsurrounding": 6772,
      "Ġbelongs": 6773,
      "Ġpuppet": 6774,
      "ware": 6775,
      "Ġack": 6776,
      "esis": 6777,
      "Ġdent": 6778,
      "anor": 6779,
      "iders": 6780,
      "Ġshines": 6781,
      "Ġkhan": 6782,
      "erella": 6783,
      "geon": 6784,
      "Ġorch": 6785,
      "Ġdign": 6786,
      "Ġposter": 6787,
      "Ġovercome": 6788,
      "Ġemp": 6789,
      "Ġappearing": 6790,
      "Ġriding": 6791,
      "Ġredempt": 6792,
      "Ġdestro": 6793,
      "Ġambig": 6794,
      "Ġcompetent": 6795,
      "Ġbobby": 6796,
      "Ġbridge": 6797,
      "Ġexercise": 6798,
      "dram": 6799,
      "ko": 6800,
      "itar": 6801,
      "Ġupper": 6802,
      "oops": 6803,
      "Ġnewsp": 6804,
      "Ġtraum": 6805,
      "Ġcaric": 6806,
      "Ġmaria": 6807,
      "Ġborrow": 6808,
      "Ġspiritual": 6809,
      "Ġachieved": 6810,
      "spoiler": 6811,
      "Ġneighborhood": 6812,
      "Ġunforgettable": 6813,
      "vous": 6814,
      "Ġkud": 6815,
      "Ġfeed": 6816,
      "Ġclown": 6817,
      "Ġque": 6818,
      "Ġprejud": 6819,
      "Ġoddly": 6820,
      "Ġprofession": 6821,
      "lson": 6822,
      "uch": 6823,
      "Ġtied": 6824,
      "arm": 6825,
      "Ġinfect": 6826,
      "Ġgor": 6827,
      "Ġstiff": 6828,
      "Ġsends": 6829,
      "Ġactiv": 6830,
      "Ġknife": 6831,
      "Ġdramas": 6832,
      "Ġclosely": 6833,
      "Ġbusy": 6834,
      "Ġweakness": 6835,
      "Ġsentimental": 6836,
      "Ġtarantino": 6837,
      "Ġninja": 6838,
      "Ġcustom": 6839,
      "wife": 6840,
      "Ġern": 6841,
      "Ġom": 6842,
      "Ġmouse": 6843,
      "arl": 6844,
      "Ġlur": 6845,
      "Ġforb": 6846,
      "iments": 6847,
      "Ġmonth": 6848,
      "Ġtroubled": 6849,
      "movies": 6850,
      "Ġnavy": 6851,
      "Ġthick": 6852,
      "aning": 6853,
      "Ġinco": 6854,
      "oma": 6855,
      "Ġrebel": 6856,
      "Ġstro": 6857,
      "think": 6858,
      "Ġshir": 6859,
      "place": 6860,
      "Ġincons": 6861,
      "Ġelabor": 6862,
      "Ġlacked": 6863,
      "Ġhearts": 6864,
      "Ġwilder": 6865,
      "Ġmodest": 6866,
      "Ġbriefly": 6867,
      "Ġcrafted": 6868,
      "iation": 6869,
      "Ġsag": 6870,
      "Ġpse": 6871,
      "Ġstumb": 6872,
      "sex": 6873,
      "Ġouter": 6874,
      "aky": 6875,
      "apes": 6876,
      "Ġmarke": 6877,
      "Ġmonke": 6878,
      "Ġsolve": 6879,
      "such": 6880,
      "Ġcannibal": 6881,
      "Ġbirthday": 6882,
      "Ġadequ": 6883,
      "Ġpseud": 6884,
      "!.": 6885,
      "mel": 6886,
      "Ġcher": 6887,
      "Ġchoos": 6888,
      "Ġsuits": 6889,
      "Ġspots": 6890,
      "pector": 6891,
      "ologist": 6892,
      "Ġwishes": 6893,
      "Ġultra": 6894,
      "Ġessence": 6895,
      "Ġscarecr": 6896,
      "Ġperformers": 6897,
      "Ġjamie": 6898,
      "Ġbible": 6899,
      "Ġmes": 6900,
      "Ġhbo": 6901,
      "Ġdre": 6902,
      "Ġdump": 6903,
      "Ġtodd": 6904,
      "asp": 6905,
      "Ġnail": 6906,
      "thew": 6907,
      "Ġblows": 6908,
      "Ġguilt": 6909,
      "Ġreser": 6910,
      "Ġenjoyment": 6911,
      "Ġsuburb": 6912,
      "Ġglimp": 6913,
      "blance": 6914,
      "Ġconnected": 6915,
      "Ġangels": 6916,
      "Ġjerk": 6917,
      "accur": 6918,
      "Ġoutrageous": 6919,
      "Ġpiano": 6920,
      "?),": 6921,
      "ox": 6922,
      "Ġhills": 6923,
      "Ġcomfort": 6924,
      "Ġholly": 6925,
      "Ġtrap": 6926,
      "Ġbasement": 6927,
      "Ġzone": 6928,
      "Ġexplicit": 6929,
      "Ġengine": 6930,
      "Ġthrilling": 6931,
      "Ġannoyed": 6932,
      "Ġshoots": 6933,
      "Ġburt": 6934,
      "Ġjudg": 6935,
      "Ġhomage": 6936,
      "Ġcompetition": 6937,
      "Ġmiserably": 6938,
      "ugosi": 6939,
      "Ġatmospheric": 6940,
      "Ġglimpse": 6941,
      "Ġpink": 6942,
      "Ġtoss": 6943,
      "Ġnotch": 6944,
      "Ġdod": 6945,
      "Ġdepe": 6946,
      "Ġarnold": 6947,
      "Ġspiel": 6948,
      "weight": 6949,
      "Ġbeings": 6950,
      "dead": 6951,
      "Ġspending": 6952,
      "Ġstring": 6953,
      "Ġbucks": 6954,
      "Ġcarefully": 6955,
      "Ġglory": 6956,
      "Ġsadd": 6957,
      "Ġadapted": 6958,
      "Ġpersonalities": 6959,
      "Ġlimit": 6960,
      "Ġguts": 6961,
      "Ġchasing": 6962,
      "Ġchases": 6963,
      "Ġuncomfortable": 6964,
      "60": 6965,
      "Ġhorses": 6966,
      "Ġcus": 6967,
      "Ġattend": 6968,
      "Ġintention": 6969,
      "Ġensemble": 6970,
      "angle": 6971,
      "Ġelsewhere": 6972,
      "Ġdevelops": 6973,
      "Ġdealt": 6974,
      "Ġgermans": 6975,
      "Ġfranco": 6976,
      "Ġuninspired": 6977,
      "iosity": 6978,
      "Ġgarden": 6979,
      "book": 6980,
      "sur": 6981,
      "Ġlen": 6982,
      "icial": 6983,
      "Ġheist": 6984,
      "Ġfaced": 6985,
      "Ġdiss": 6986,
      "Ġeditor": 6987,
      "ructed": 6988,
      "Ġmedium": 6989,
      "Ġimportantly": 6990,
      "Ġopposed": 6991,
      "Ġcolorful": 6992,
      "Ġfolk": 6993,
      "Ġconcerns": 6994,
      "Ġkidnapped": 6995,
      "Ġjessica": 6996,
      "Ġinvisible": 6997,
      "did": 6998,
      "eur": 6999,
      "rics": 7000,
      "ems": 7001,
      "Ġbrill": 7002,
      "mentioned": 7003,
      "Ġstruck": 7004,
      "Ġdialogs": 7005,
      "Ġburst": 7006,
      "blood": 7007,
      "series": 7008,
      "Ġidentify": 7009,
      "Ġmatthau": 7010,
      "master": 7011,
      "och": 7012,
      "Ġchest": 7013,
      "Ġdoc": 7014,
      "iancÃ©": 7015,
      "!!!!!": 7016,
      "Ġpointed": 7017,
      "Ġgotta": 7018,
      "Ġsnake": 7019,
      "Ġsilence": 7020,
      "Ġafford": 7021,
      "Ġdisappear": 7022,
      "Ġhealth": 7023,
      "Ġnotorious": 7024,
      "Ġunbear": 7025,
      "vide": 7026,
      "Ġaz": 7027,
      "Ġwake": 7028,
      "Ġwave": 7029,
      "rell": 7030,
      "ingu": 7031,
      "Ġinher": 7032,
      "Ġbeating": 7033,
      "Ġstaff": 7034,
      "Ġrachel": 7035,
      "Ġkicks": 7036,
      "rael": 7037,
      "Ġmyst": 7038,
      "plane": 7039,
      "Ġaged": 7040,
      "Ġcrimes": 7041,
      "Ġslaughter": 7042,
      "Ġindians": 7043,
      "Ġdrags": 7044,
      "airs": 7045,
      "Ġthrillers": 7046,
      "Ġstriking": 7047,
      "Ġstretch": 7048,
      "Ġincompet": 7049,
      "Ġsidney": 7050,
      "Ġportrait": 7051,
      "will": 7052,
      "Ġira": 7053,
      "onse": 7054,
      "Ġinaccur": 7055,
      "Ġnoble": 7056,
      "Ġgrows": 7057,
      "Ġhappily": 7058,
      "Ġtermin": 7059,
      "pses": 7060,
      "Ġlarger": 7061,
      "Ġdestruction": 7062,
      "Ġacceptable": 7063,
      "Ġjonathan": 7064,
      "Ġcabin": 7065,
      "Ġcatholic": 7066,
      "iently": 7067,
      "rase": 7068,
      "Ġwis": 7069,
      "Ġbust": 7070,
      "Ġbone": 7071,
      "ieu": 7072,
      "Ġrushed": 7073,
      "Ġabrupt": 7074,
      "Ġunple": 7075,
      "Ġreturning": 7076,
      "Ġlabor": 7077,
      "Ġsuspects": 7078,
      "Ġrevelation": 7079,
      "Ġoil": 7080,
      "istically": 7081,
      "Ġtricks": 7082,
      "Ġgray": 7083,
      "Ġtalked": 7084,
      "Ġsouls": 7085,
      "Ġrepeatedly": 7086,
      "Ġmitchell": 7087,
      "da": 7088,
      "hem": 7089,
      "Ġtad": 7090,
      "Ġwax": 7091,
      "Ġambitious": 7092,
      "Ġmagazine": 7093,
      "Ġthunder": 7094,
      "Ġbac": 7095,
      "Ġcure": 7096,
      "Ġstu": 7097,
      "Ġkub": 7098,
      "ounds": 7099,
      "because": 7100,
      "Ġcompass": 7101,
      "conom": 7102,
      "two": 7103,
      "Ġcardboard": 7104,
      "Ġcrisis": 7105,
      "girl": 7106,
      "Ġincreasingly": 7107,
      "Ġignored": 7108,
      "Ġralph": 7109,
      "Ġredemption": 7110,
      "fia": 7111,
      "god": 7112,
      "Ġsize": 7113,
      "Ġlugosi": 7114,
      "Ġrive": 7115,
      "igan": 7116,
      "mann": 7117,
      "Ġgrin": 7118,
      "Ġsexually": 7119,
      "Ġaudio": 7120,
      "Ġfund": 7121,
      "Ġencounters": 7122,
      "Ġkorean": 7123,
      "Ġlibrary": 7124,
      "Ġterritory": 7125,
      "Ġmars": 7126,
      "Ġfinger": 7127,
      "Ġdict": 7128,
      "Ġrend": 7129,
      "Ġfears": 7130,
      "Ġspread": 7131,
      "Ġcoast": 7132,
      "ifying": 7133,
      "Ġdragged": 7134,
      "Ġ45": 7135,
      "Ġadmire": 7136,
      "Ġlaurel": 7137,
      "Ġmelodramatic": 7138,
      "handed": 7139,
      "Ġlocked": 7140,
      "lines": 7141,
      "ata": 7142,
      "Ġisrael": 7143,
      "Ġstood": 7144,
      "child": 7145,
      "Ġnelson": 7146,
      "istan": 7147,
      "Ġmuse": 7148,
      "Ġquar": 7149,
      "Ġmaker": 7150,
      "Ġempath": 7151,
      "Ġmisf": 7152,
      "ucky": 7153,
      "shot": 7154,
      "ographic": 7155,
      "Ġnorman": 7156,
      "Ġcameos": 7157,
      "Ġinfamous": 7158,
      "Ġhoped": 7159,
      "Ġrevealing": 7160,
      "Ġbleak": 7161,
      "Ġhunting": 7162,
      "Ġdropped": 7163,
      "Ġdubbing": 7164,
      "Ġgradu": 7165,
      "Ġinevitable": 7166,
      "Ġphenomen": 7167,
      "13": 7168,
      "pie": 7169,
      "ĠfiancÃ©": 7170,
      "entric": 7171,
      "Ġker": 7172,
      "umber": 7173,
      "Ġmaniac": 7174,
      "Ġshower": 7175,
      "Ġremaining": 7176,
      "ivan": 7177,
      "Ġdancer": 7178,
      "Ġexpensive": 7179,
      "Ġcuriosity": 7180,
      "Ġimportance": 7181,
      "Ġresponse": 7182,
      "Ġreplace": 7183,
      "Ġvenge": 7184,
      "Ġsavage": 7185,
      "Ġcharisma": 7186,
      "Ġcringe": 7187,
      "Ġgothic": 7188,
      "Ġrepetitive": 7189,
      "Ġrestaurant": 7190,
      "Ġspielberg": 7191,
      "iner": 7192,
      "Ġrelevant": 7193,
      "Ġtrite": 7194,
      "...)": 7195,
      "Ġprecious": 7196,
      "Ġsubplot": 7197,
      "Ġearn": 7198,
      "Ġchecking": 7199,
      "Ġgrandfather": 7200,
      "Ġinvestigation": 7201,
      "human": 7202,
      "Ġendearing": 7203,
      "Ġtoilet": 7204,
      "Ġorchest": 7205,
      "agh": 7206,
      "Ġcup": 7207,
      "atisf": 7208,
      "orc": 7209,
      "icing": 7210,
      "Ġrome": 7211,
      "Ġselling": 7212,
      "Ġchain": 7213,
      "Ġappalling": 7214,
      "Ġeasier": 7215,
      "Ġfortune": 7216,
      "Ġwaters": 7217,
      "âĢĻ": 7218,
      "Ġhudson": 7219,
      "bet": 7220,
      "met": 7221,
      "pred": 7222,
      "Ġsque": 7223,
      "Ġbin": 7224,
      "Ġmummy": 7225,
      "Ġdal": 7226,
      "icop": 7227,
      "Ġreleas": 7228,
      "Ġshout": 7229,
      "ogue": 7230,
      "Ġemily": 7231,
      "Ġhandful": 7232,
      "Ġattracted": 7233,
      "attan": 7234,
      "Ġrequires": 7235,
      "Ġsplit": 7236,
      "Ġvulner": 7237,
      "Ġtons": 7238,
      "Ġaid": 7239,
      "Ġmun": 7240,
      "Ġcig": 7241,
      "Ġrug": 7242,
      "acted": 7243,
      "Ġhorrid": 7244,
      "awa": 7245,
      "Ġcreators": 7246,
      "Ġeleg": 7247,
      "Ġsnakes": 7248,
      "Ġmistaken": 7249,
      "Ġstole": 7250,
      "Ġindividuals": 7251,
      "Ġcommercials": 7252,
      "Ġhighlights": 7253,
      "dav": 7254,
      "Ġthrew": 7255,
      "once": 7256,
      "Ġrig": 7257,
      "cend": 7258,
      "Ġkr": 7259,
      "Ġrogers": 7260,
      "Ġaccused": 7261,
      "Ġexplod": 7262,
      "Ġselfish": 7263,
      "Ġlucy": 7264,
      "Ġilleg": 7265,
      "Ġhype": 7266,
      "Ġsandra": 7267,
      "Ġbreasts": 7268,
      "Ġcroc": 7269,
      "Ġhorrendous": 7270,
      "video": 7271,
      "dri": 7272,
      "Ġstated": 7273,
      "robert": 7274,
      "aka": 7275,
      "Ġperforming": 7276,
      "Ġterrifying": 7277,
      "Ġhelicop": 7278,
      "Ġrestra": 7279,
      "Ġlaunch": 7280,
      "Ġoscars": 7281,
      "Ġausten": 7282,
      "--------": 7283,
      "Ġsophisticated": 7284,
      "70": 7285,
      "bu": 7286,
      "Ġwann": 7287,
      "Ġegg": 7288,
      "Ġeerie": 7289,
      "idly": 7290,
      "Ġaltogether": 7291,
      "Ġdiane": 7292,
      "inda": 7293,
      "ptic": 7294,
      "Ġ24": 7295,
      "Ġkillings": 7296,
      "Ġargue": 7297,
      "Ġexplosions": 7298,
      "school": 7299,
      "Ġunpleasant": 7300,
      "Ġbay": 7301,
      "Ġcham": 7302,
      "Ġdoors": 7303,
      "Ġwatches": 7304,
      "Ġclues": 7305,
      "before": 7306,
      "Ġdevast": 7307,
      "Ġtypically": 7308,
      "Ġforgive": 7309,
      "Ġleslie": 7310,
      "Ġraped": 7311,
      "Ġpacked": 7312,
      "watchable": 7313,
      "Ġfifteen": 7314,
      "Ġreactions": 7315,
      "Ġinexplic": 7316,
      "rehens": 7317,
      "Ġtremendous": 7318,
      "Ġchicago": 7319,
      "Ġbackdrop": 7320,
      "Ġkirk": 7321,
      "rial": 7322,
      "ements": 7323,
      "eston": 7324,
      "Ġvig": 7325,
      "Ġgoal": 7326,
      "Ġhorrors": 7327,
      "Ġshortly": 7328,
      "Ġengaged": 7329,
      "Ġassault": 7330,
      "Ġwinter": 7331,
      "Ġ2005": 7332,
      "Ġangeles": 7333,
      "Ġtravels": 7334,
      "isation": 7335,
      "Ġpulp": 7336,
      "Ġstir": 7337,
      "Ġjun": 7338,
      "ira": 7339,
      "quel": 7340,
      "Ġtimeless": 7341,
      "Ġafore": 7342,
      "Ġslick": 7343,
      "Ġpersona": 7344,
      "Ġreasonable": 7345,
      "Ġshoes": 7346,
      "Ġdemands": 7347,
      "Ġdiscovery": 7348,
      "Ġmerit": 7349,
      "Ġlifest": 7350,
      "Ġalexander": 7351,
      "Ġmansion": 7352,
      "hour": 7353,
      "Ġeconom": 7354,
      "Ġalle": 7355,
      "Ġloser": 7356,
      "Ġtrade": 7357,
      "Ġimit": 7358,
      "Ġprecise": 7359,
      "Ġcharacterization": 7360,
      "Ġwonders": 7361,
      "Ġcorpse": 7362,
      "Ġoccurs": 7363,
      "Ġfrankenstein": 7364,
      "Ġcombat": 7365,
      "Ġjuliet": 7366,
      "anagh": 7367,
      "Ġjumping": 7368,
      "Ġsmoke": 7369,
      "Ġshadows": 7370,
      "Ġmotivation": 7371,
      "Ġsons": 7372,
      "Ġmile": 7373,
      "eremy": 7374,
      "Ġwebs": 7375,
      "Ġpeak": 7376,
      "erty": 7377,
      "Ġdismiss": 7378,
      "Ġrealise": 7379,
      "Ġfactory": 7380,
      "Ġreport": 7381,
      "Ġpulling": 7382,
      "Ġsymbolism": 7383,
      "Ġkudos": 7384,
      "Ġbrilliance": 7385,
      "Ġkubrick": 7386,
      "Ġreli": 7387,
      "Ġrabb": 7388,
      "Ġbutton": 7389,
      "Ġsup": 7390,
      "Ġallowing": 7391,
      "Ġnoise": 7392,
      "Ġperpet": 7393,
      "Ġreluct": 7394,
      "Ġfarce": 7395,
      "Ġabsor": 7396,
      "Ġassociated": 7397,
      "Ġeccentric": 7398,
      "Ġincoherent": 7399,
      "corn": 7400,
      "Ġsme": 7401,
      "Ġinn": 7402,
      "Ġheat": 7403,
      "Ġkitch": 7404,
      "uloid": 7405,
      "usions": 7406,
      "Ġmechan": 7407,
      "Ġinteraction": 7408,
      "ipes": 7409,
      "Ġbold": 7410,
      "Ġcountless": 7411,
      "writers": 7412,
      "Ġcalm": 7413,
      "Ġelderly": 7414,
      "bat": 7415,
      "Ġbaker": 7416,
      "Ġfx": 7417,
      "Ġcried": 7418,
      "Ġpunk": 7419,
      "sec": 7420,
      "Ġkat": 7421,
      "resses": 7422,
      "Ġworlds": 7423,
      "Ġinstinct": 7424,
      "existent": 7425,
      "Ġthrills": 7426,
      "Ġimmig": 7427,
      "Ġsurrounded": 7428,
      "minded": 7429,
      "hal": 7430,
      "zel": 7431,
      "Ġwack": 7432,
      "Ġmam": 7433,
      "ora": 7434,
      "Ġpleased": 7435,
      "Ġnotes": 7436,
      "Ġareas": 7437,
      "agan": 7438,
      "Ġroot": 7439,
      "Ġpoison": 7440,
      "Ġpride": 7441,
      "Ġemma": 7442,
      "Ġbelieving": 7443,
      "heim": 7444,
      "Ġdocumentaries": 7445,
      "Ġvirus": 7446,
      "Ġsurvival": 7447,
      "minute": 7448,
      "Ġbeaten": 7449,
      "Ġcirc": 7450,
      "Ġranks": 7451,
      "Ġsquad": 7452,
      "Ġloosely": 7453,
      "Ġleonard": 7454,
      "Ġbruno": 7455,
      "Ġta": 7456,
      "Ġwoo": 7457,
      "Ġbark": 7458,
      "Ġmall": 7459,
      "Ġramp": 7460,
      "allo": 7461,
      "Ġjen": 7462,
      "Ġanyways": 7463,
      "Ġdisplays": 7464,
      "force": 7465,
      "Ġevident": 7466,
      "Ġresort": 7467,
      "Ġgodfather": 7468,
      "195": 7469,
      "Ġdetailed": 7470,
      "Ġsmoking": 7471,
      "Ġphotographed": 7472,
      "Ġjealous": 7473,
      "Ġsubsequent": 7474,
      "Ġhysterical": 7475,
      "Ġcere": 7476,
      "Ġpap": 7477,
      "Ġplague": 7478,
      "Ġmanh": 7479,
      "Ġblank": 7480,
      "Ġmessages": 7481,
      "Ġspoiled": 7482,
      "Ġproviding": 7483,
      "Ġpolitic": 7484,
      "Ġ2000": 7485,
      "Ġ2006": 7486,
      "Ġbullet": 7487,
      "Ġrussia": 7488,
      "Ġburning": 7489,
      "Ġidiots": 7490,
      "Ġpossessed": 7491,
      "Ġfrost": 7492,
      "iar": 7493,
      "Ġwing": 7494,
      "Ġhire": 7495,
      "asion": 7496,
      "Ġrif": 7497,
      "Ġalike": 7498,
      "Ġspr": 7499,
      "phant": 7500,
      "Ġconser": 7501,
      "Ġfancy": 7502,
      "gger": 7503,
      "Ġreturned": 7504,
      "Ġwalls": 7505,
      "Ġargument": 7506,
      "Ġsegments": 7507,
      "Ġaccomplished": 7508,
      "Ġresolution": 7509,
      "aurs": 7510,
      "wa": 7511,
      "Ġgif": 7512,
      "Ġspare": 7513,
      "Ġenters": 7514,
      "Ġ21": 7515,
      "Ġdirectorial": 7516,
      "Ġreasonably": 7517,
      "Ġworthless": 7518,
      "grade": 7519,
      "Ġwalken": 7520,
      "box": 7521,
      "super": 7522,
      "Ġflawless": 7523,
      "Ġarrive": 7524,
      "Ġrepresents": 7525,
      "Ġthumbs": 7526,
      "jointed": 7527,
      "nel": 7528,
      "Ġbeats": 7529,
      "stars": 7530,
      "seen": 7531,
      "Ġjazz": 7532,
      "Ġsull": 7533,
      "Ġalbeit": 7534,
      "Ġabilities": 7535,
      "neth": 7536,
      "Ġslim": 7537,
      "Ġcared": 7538,
      "Ġdetract": 7539,
      "Ġadvance": 7540,
      "Ġpredator": 7541,
      "unky": 7542,
      "Ġstrikes": 7543,
      "Ġluckily": 7544,
      "Ġiii": 7545,
      "Ġinsulting": 7546,
      "Ġfrustrated": 7547,
      "Ġtunes": 7548,
      "Ġowen": 7549,
      "Ġlandscape": 7550,
      "high": 7551,
      "mad": 7552,
      "mart": 7553,
      "Ġdere": 7554,
      "Ġec": 7555,
      "verty": 7556,
      "then": 7557,
      "Ġoutcome": 7558,
      "Ġclay": 7559,
      "Ġblade": 7560,
      "Ġdrown": 7561,
      "Ġcarter": 7562,
      "Ġwondered": 7563,
      "Ġinstit": 7564,
      "Ġglob": 7565,
      "Ġsteam": 7566,
      "Ġliking": 7567,
      "Ġuniform": 7568,
      "194": 7569,
      "Ġpleasantly": 7570,
      "Ġduke": 7571,
      "Ġfatal": 7572,
      "Ġcontinued": 7573,
      "Ġaffection": 7574,
      "Ġcelluloid": 7575,
      "Ġjuven": 7576,
      "Ġachievement": 7577,
      "Ġunintentionally": 7578,
      "Ġcrisp": 7579,
      "Ġcharismatic": 7580,
      "pieces": 7581,
      "fact": 7582,
      "Ġdaring": 7583,
      "Ġpam": 7584,
      "Ġnar": 7585,
      "Ġeg": 7586,
      "Ġworried": 7587,
      "Ġpoverty": 7588,
      "Ġbless": 7589,
      "Ġsail": 7590,
      "Ġfuneral": 7591,
      "Ġafterwards": 7592,
      "Ġhopper": 7593,
      "Ġattached": 7594,
      "Ġcarrey": 7595,
      "Ġresour": 7596,
      "Ġinspector": 7597,
      "veloped": 7598,
      "Ġrocks": 7599,
      "Ġburied": 7600,
      "Ġbuilds": 7601,
      "Ġnearby": 7602,
      "Ġtortured": 7603,
      "Ġreceive": 7604,
      "Ġstanley": 7605,
      "Ġescaped": 7606,
      "Ġaimed": 7607,
      "Ġcanada": 7608,
      "Ġnazis": 7609,
      "Ġwrestling": 7610,
      "uh": 7611,
      "Ġawe": 7612,
      "erning": 7613,
      "Ġbeck": 7614,
      "iels": 7615,
      "Ġreed": 7616,
      "Ġjake": 7617,
      "rock": 7618,
      "Ġdol": 7619,
      "andy": 7620,
      "Ġconqu": 7621,
      "Ġshell": 7622,
      "Ġclo": 7623,
      "Ġdisease": 7624,
      "Ġsadistic": 7625,
      "Ġconcerning": 7626,
      "Ġantics": 7627,
      "Ġswear": 7628,
      "Ġmarks": 7629,
      "Ġsuperbly": 7630,
      "Ġmeaningless": 7631,
      "having": 7632,
      "Ġjewel": 7633,
      "Ġresembles": 7634,
      "Ġmiy": 7635,
      "Ġcompassion": 7636,
      "cingly": 7637,
      "Ġ..": 7638,
      "Ġhanks": 7639,
      "isc": 7640,
      "Ġpushed": 7641,
      "Ġjet": 7642,
      "Ġjosh": 7643,
      "Ġextended": 7644,
      "acked": 7645,
      "Ġdialogues": 7646,
      "Ġgenerous": 7647,
      "Ġstronger": 7648,
      "Ġpicking": 7649,
      "Ġsubjects": 7650,
      "Ġcomplaint": 7651,
      "Ġburned": 7652,
      "Ġdiscussion": 7653,
      "Ġduty": 7654,
      "Ġireland": 7655,
      "mur": 7656,
      "Ġgift": 7657,
      "Ġbears": 7658,
      "idal": 7659,
      "kel": 7660,
      "Ġliz": 7661,
      "ortion": 7662,
      "Ġbride": 7663,
      "Ġimper": 7664,
      "Ġblast": 7665,
      "Ġblake": 7666,
      "Ġblues": 7667,
      "Ġdisjointed": 7668,
      "death": 7669,
      "Ġbug": 7670,
      "Ġcausing": 7671,
      "Ġgeor": 7672,
      "Ġplanning": 7673,
      "Ġwallace": 7674,
      "Ġprisoners": 7675,
      "Ġdrunken": 7676,
      "Ġbathroom": 7677,
      "Ġdigital": 7678,
      "Ġswedish": 7679,
      "Ġstooges": 7680,
      "Ġhitting": 7681,
      "esth": 7682,
      "Ġpale": 7683,
      "ilted": 7684,
      "Ġload": 7685,
      "peror": 7686,
      "Ġboom": 7687,
      "Ġinsist": 7688,
      "Ġdepression": 7689,
      "Ġdistant": 7690,
      "196": 7691,
      "Ġridiculously": 7692,
      "Ġsentence": 7693,
      "Ġsecretary": 7694,
      "Ġprojects": 7695,
      "Ġuniversity": 7696,
      "Ġingred": 7697,
      "Ġarrested": 7698,
      "Ġsuperficial": 7699,
      "ear": 7700,
      "was": 7701,
      "Ġastr": 7702,
      "Ġfitting": 7703,
      "Ġfingers": 7704,
      "Ġcia": 7705,
      "Ġsticks": 7706,
      "ione": 7707,
      "Ġarc": 7708,
      "Ġwillis": 7709,
      "Ġcovers": 7710,
      "Ġfonda": 7711,
      "Ġesp": 7712,
      "Ġchildish": 7713,
      "xture": 7714,
      "Ġmatthew": 7715,
      "Ġmurray": 7716,
      "Ġdistance": 7717,
      "Ġmadonna": 7718,
      "Ġinspiring": 7719,
      "Ġrespond": 7720,
      "Ġcruise": 7721,
      "Ġaffected": 7722,
      "Ġbrando": 7723,
      "Ġlinda": 7724,
      "Ġobscure": 7725,
      "\";": 7726,
      "ees": 7727,
      "ji": 7728,
      "town": 7729,
      "Ġtail": 7730,
      "Ġbak": 7731,
      "Ġmou": 7732,
      "Ġmish": 7733,
      "Ġhers": 7734,
      "Ġcats": 7735,
      "Ġeaster": 7736,
      "ctions": 7737,
      "Ġross": 7738,
      "Ġrural": 7739,
      "Ġchains": 7740,
      "Ġamanda": 7741,
      "othing": 7742,
      "Ġimperson": 7743,
      "Ġcareers": 7744,
      "ello": 7745,
      "Ġpossibility": 7746,
      "Ġdrivel": 7747,
      "onym": 7748,
      "Ġyester": 7749,
      "Ġlisted": 7750,
      "Ġpromin": 7751,
      "Ġsecrets": 7752,
      "Ġstrike": 7753,
      "Ġdelivering": 7754,
      "Ġundoub": 7755,
      "Ġofficers": 7756,
      "____": 7757,
      "Ġprostitute": 7758,
      "Ġstrictly": 7759,
      "Ġspooky": 7760,
      "lers": 7761,
      "Ġ;": 7762,
      "Ġhog": 7763,
      "anim": 7764,
      "icles": 7765,
      "Ġmol": 7766,
      "Ġya": 7767,
      "Ġrud": 7768,
      "Ġchances": 7769,
      "Ġplat": 7770,
      "Ġcomfortable": 7771,
      "Ġmeg": 7772,
      "athers": 7773,
      "being": 7774,
      "isms": 7775,
      "Ġmenacing": 7776,
      "Ġfurthermore": 7777,
      "check": 7778,
      "Ġgradually": 7779,
      "Ġoffended": 7780,
      "Ġlogical": 7781,
      "bury": 7782,
      "dated": 7783,
      "lon": 7784,
      "Ġwag": 7785,
      "Ġlit": 7786,
      "omit": 7787,
      "Ġgeneric": 7788,
      "Ġscripted": 7789,
      "Ġcolonel": 7790,
      "Ġheroic": 7791,
      "balls": 7792,
      "Ġsentiment": 7793,
      "Ġlawrence": 7794,
      "Ġironically": 7795,
      "ffee": 7796,
      "Ġcusack": 7797,
      "rict": 7798,
      "Ġoct": 7799,
      "Ġfired": 7800,
      "Ġcel": 7801,
      "Ġrecover": 7802,
      "Ġdevoid": 7803,
      "olves": 7804,
      "Ġdire": 7805,
      "Ġsaf": 7806,
      "Ġkidding": 7807,
      "Ġstreep": 7808,
      "Ġnarrator": 7809,
      "Ġdraws": 7810,
      "Ġimplausible": 7811,
      "Ġingen": 7812,
      "opsis": 7813,
      "Ġlyrics": 7814,
      "Ġruthless": 7815,
      "Ġinvolvement": 7816,
      "Ġwarrior": 7817,
      "Ġaltman": 7818,
      "Ġargento": 7819,
      "based": 7820,
      "ost": 7821,
      "Ġtool": 7822,
      "itudes": 7823,
      "Ġrever": 7824,
      "Ġbutch": 7825,
      "Ġvicious": 7826,
      "Ġups": 7827,
      "Ġresur": 7828,
      "Ġexplore": 7829,
      "Ġmorality": 7830,
      "Ġcampbell": 7831,
      "Ġsigns": 7832,
      "Ġgrandmother": 7833,
      "gener": 7834,
      "Ġchaos": 7835,
      "Ġcurrently": 7836,
      "Ġbehavi": 7837,
      "Ġfrag": 7838,
      "Ġcassave": 7839,
      "Ġexaggerated": 7840,
      "Ġmetaphor": 7841,
      "Ġconspiracy": 7842,
      "Ġpseudo": 7843,
      "Ġjuvenile": 7844,
      "paced": 7845,
      "ril": 7846,
      "sing": 7847,
      "Ġtie": 7848,
      "Ġdur": 7849,
      "about": 7850,
      "Ġspike": 7851,
      "Ġflav": 7852,
      "ashes": 7853,
      "Ġtrio": 7854,
      "Ġdifferences": 7855,
      "Ġangela": 7856,
      "Ġtraveling": 7857,
      "Ġinvestigate": 7858,
      "Ġsplatter": 7859,
      "Ġconversations": 7860,
      "Ġstinker": 7861,
      "Ġporno": 7862,
      "Ġthroat": 7863,
      "Ġnewspaper": 7864,
      "Ġkitchen": 7865,
      "ele": 7866,
      "fu": 7867,
      "Ġvel": 7868,
      "Ġtank": 7869,
      "Ġah": 7870,
      "Ġaug": 7871,
      "Ġlinc": 7872,
      "Ġjol": 7873,
      "Ġexorc": 7874,
      "Ġcomics": 7875,
      "Ġunwatchable": 7876,
      "Ġclock": 7877,
      "Ġcloud": 7878,
      "Ġclaire": 7879,
      "Ġpretend": 7880,
      "Ġtracy": 7881,
      "Ġtracks": 7882,
      "Ġhardcore": 7883,
      "Ġbrains": 7884,
      "Ġmasters": 7885,
      "Ġimproved": 7886,
      "Ġterrorist": 7887,
      "Ġlabel": 7888,
      "conscious": 7889,
      "Ġliberal": 7890,
      "Ġticket": 7891,
      "Ġparallel": 7892,
      "Ġinstallment": 7893,
      "\"...": 7894,
      "wo": 7895,
      "Ġlol": 7896,
      "Ġgate": 7897,
      "Ġdoz": 7898,
      "Ġgoodness": 7899,
      "Ġintr": 7900,
      "Ġoffering": 7901,
      "Ġremoved": 7902,
      "show": 7903,
      "ggie": 7904,
      "Ġsadness": 7905,
      "Ġlucas": 7906,
      "Ġerrors": 7907,
      "********": 7908,
      "Ġslightest": 7909,
      "friends": 7910,
      "worthy": 7911,
      "etti": 7912,
      "Ġscreams": 7913,
      "Ġblend": 7914,
      "Ġsales": 7915,
      "Ġcontrary": 7916,
      "Ġtorment": 7917,
      "Ġdinosaurs": 7918,
      "Ġoverlooked": 7919,
      "Ġaforementioned": 7920,
      "kish": 7921,
      "rd": 7922,
      "tly": 7923,
      "yr": 7924,
      "ĠâĢ": 7925,
      "Ġbam": 7926,
      "Ġnun": 7927,
      "ications": 7928,
      "oln": 7929,
      "itely": 7930,
      "Ġagents": 7931,
      "Ġhollow": 7932,
      "Ġgrasp": 7933,
      "Ġsecondly": 7934,
      "Ġpopcorn": 7935,
      "Ġdevoted": 7936,
      "Ġstaying": 7937,
      "Ġluci": 7938,
      "Ġproceedings": 7939,
      "Ġdorothy": 7940,
      "Ġdedicated": 7941,
      "Ġgriffith": 7942,
      "bre": 7943,
      "mons": 7944,
      "oor": 7945,
      "ped": 7946,
      "power": 7947,
      "Ġfoul": 7948,
      "alo": 7949,
      "Ġtea": 7950,
      "aph": 7951,
      "Ġgrab": 7952,
      "Ġunfair": 7953,
      "Ġracial": 7954,
      "Ġconclud": 7955,
      "Ġprede": 7956,
      "Ġluc": 7957,
      "eyed": 7958,
      "Ġwinds": 7959,
      "Ġduo": 7960,
      "Ġmidnight": 7961,
      "Ġrandy": 7962,
      "Ġscientific": 7963,
      "Ġrequire": 7964,
      "Ġreached": 7965,
      "Ġtranslation": 7966,
      "Ġisolated": 7967,
      "Ġmuseum": 7968,
      "aver": 7969,
      "cult": 7970,
      "Ġbach": 7971,
      "Ġmate": 7972,
      "Ġdill": 7973,
      "Ġdish": 7974,
      "Ġlav": 7975,
      "Ġgimm": 7976,
      "Ġego": 7977,
      "Ġanal": 7978,
      "Ġmeasure": 7979,
      "Ġclosed": 7980,
      "Ġboll": 7981,
      "Ġhumili": 7982,
      "Ġconscious": 7983,
      "Ġfantas": 7984,
      "Ġsuspic": 7985,
      "Ġtemple": 7986,
      "Ġroyal": 7987,
      "Ġrubber": 7988,
      "Ġbenefit": 7989,
      "Ġarab": 7990,
      "rome": 7991,
      "Ġbates": 7992,
      "eni": 7993,
      "Ġstark": 7994,
      "Ġligh": 7995,
      "Ġexter": 7996,
      "aste": 7997,
      "Ġbranagh": 7998,
      "isha": 7999,
      "Ġdisli": 8000,
      "Ġglenn": 8001,
      "Ġheaded": 8002,
      "Ġtransport": 8003,
      "Ġgroups": 8004,
      "Ġopinions": 8005,
      "Ġbullets": 8006,
      "Ġsubtlety": 8007,
      "Ġunbelievably": 8008,
      "Ġinfluenced": 8009,
      "paul": 8010,
      "Ġsloppy": 8011,
      "Ġunbearable": 8012,
      "eve": 8013,
      "eath": 8014,
      "iere": 8015,
      "Ġfighter": 8016,
      "Ġpants": 8017,
      "leton": 8018,
      "Ġshirt": 8019,
      "Ġabys": 8020,
      "Ġpeck": 8021,
      "Ġsimil": 8022,
      "Ġharder": 8023,
      "Ġsidekick": 8024,
      "Ġpolitically": 8025,
      "works": 8026,
      "Ġdisturbed": 8027,
      "Ġconvol": 8028,
      "Ġwalt": 8029,
      "Ġprimarily": 8030,
      "Ġhatred": 8031,
      "Ġoccurred": 8032,
      "Ġsynopsis": 8033,
      "Ġsedu": 8034,
      "Ġlincoln": 8035,
      "Ġpredecess": 8036,
      "\"-": 8037,
      "tom": 8038,
      "Ã¡": 8039,
      "Ġaka": 8040,
      "Ġwet": 8041,
      "Ġfisher": 8042,
      "Ġshaw": 8043,
      "Ġshining": 8044,
      "Ġvalley": 8045,
      "Ġmaid": 8046,
      "icking": 8047,
      "Ġoverdone": 8048,
      "Ġ192": 8049,
      "Ġartific": 8050,
      "Ġmovements": 8051,
      "Ġodds": 8052,
      "Ġprisoner": 8053,
      "Ġrecognition": 8054,
      "Ġintrigued": 8055,
      "Ġdecisions": 8056,
      "Ġdoomed": 8057,
      "Ġdignity": 8058,
      "Ġundoubted": 8059,
      "bon": 8060,
      "mat": 8061,
      "Ġstaged": 8062,
      "Ġshif": 8063,
      "emies": 8064,
      "gel": 8065,
      "Ġorders": 8066,
      "Ġdiff": 8067,
      "umsy": 8068,
      "Ġarist": 8069,
      "Ġcoffee": 8070,
      "Ġmario": 8071,
      "Ġhighest": 8072,
      "Ġmisses": 8073,
      "Ġindul": 8074,
      "Ġbuddies": 8075,
      "Ġcollabor": 8076,
      "brid": 8077,
      "Ġmotives": 8078,
      "Ġexecutive": 8079,
      "Ġintrigue": 8080,
      "Ġarchite": 8081,
      "Ġmixture": 8082,
      "Ġadmittedly": 8083,
      "Ġelaborate": 8084,
      "Ġsimilarly": 8085,
      "')": 8086,
      "mail": 8087,
      "Ġwont": 8088,
      "Ġned": 8089,
      "cha": 8090,
      "Ġrum": 8091,
      "Ġrage": 8092,
      "Ġranger": 8093,
      "etically": 8094,
      "cco": 8095,
      "Ġyellow": 8096,
      "Ġinsert": 8097,
      "voc": 8098,
      "Ġregul": 8099,
      "Ġmurderous": 8100,
      "illiam": 8101,
      "Ġbeneath": 8102,
      "Ġphotographer": 8103,
      "Ġconventional": 8104,
      "Ġsandler": 8105,
      "Ġsneak": 8106,
      "Ġmesmer": 8107,
      "rehensible": 8108,
      "born": 8109,
      "dow": 8110,
      "hay": 8111,
      "uity": 8112,
      "Ġought": 8113,
      "oric": 8114,
      "Ġinject": 8115,
      "Ġgil": 8116,
      "Ġgest": 8117,
      "Ġjeremy": 8118,
      "Ġnotably": 8119,
      "Ġkin": 8120,
      "Ġdepend": 8121,
      "Ġclumsy": 8122,
      "Ġtwin": 8123,
      "Ġmarch": 8124,
      "Ġcommented": 8125,
      "Ġestate": 8126,
      "desp": 8127,
      "Ġphilosophy": 8128,
      "Ġencoura": 8129,
      "Ġarchitect": 8130,
      "Ġ[": 8131,
      "Ġcav": 8132,
      "Ġcards": 8133,
      "Ġinapp": 8134,
      "Ġplanned": 8135,
      "Ġneil": 8136,
      "olph": 8137,
      "Ġbrook": 8138,
      "Ġaging": 8139,
      "Ġdrum": 8140,
      "Ġemperor": 8141,
      "Ġincest": 8142,
      "Ġsett": 8143,
      "Ġrelies": 8144,
      "ublic": 8145,
      "Ġinstant": 8146,
      "Ġcraig": 8147,
      "Ġabsence": 8148,
      "Ġmorris": 8149,
      "enna": 8150,
      "Ġairport": 8151,
      "Ġjudging": 8152,
      "Ġrecorded": 8153,
      "Ġexplaining": 8154,
      "Ġfields": 8155,
      "Ġfrustrating": 8156,
      "Ġspecifically": 8157,
      "Ġreduced": 8158,
      "Ġinhabit": 8159,
      "Ġrobbery": 8160,
      "oner": 8161,
      "Ġpays": 8162,
      "Ġgad": 8163,
      "Ġmode": 8164,
      "ima": 8165,
      "Ġvib": 8166,
      "Ġabc": 8167,
      "Ġmann": 8168,
      "Ġspider": 8169,
      "type": 8170,
      "Ġperformer": 8171,
      "Ġapoc": 8172,
      "Ġcarr": 8173,
      "Ġdecl": 8174,
      "Ġproducing": 8175,
      "Ġsynd": 8176,
      "Ġpsychotic": 8177,
      "Ġdamage": 8178,
      "Ġexisted": 8179,
      "Ġjulian": 8180,
      "Ġrecognized": 8181,
      "Ġthreatening": 8182,
      "Ġexplosion": 8183,
      "foot": 8184,
      "Ġgigg": 8185,
      "Ġcaptivating": 8186,
      "Ġpoetry": 8187,
      "Ġcinderella": 8188,
      "predict": 8189,
      "mill": 8190,
      "Ġwine": 8191,
      "Ġsolo": 8192,
      "plan": 8193,
      "perhaps": 8194,
      "Ġrecru": 8195,
      "Ġstrang": 8196,
      "Ġbasket": 8197,
      "Ġtitled": 8198,
      "Ġdarker": 8199,
      "Ġfrankie": 8200,
      "Ġstereotype": 8201,
      "related": 8202,
      "Ġeighties": 8203,
      "Ġcameras": 8204,
      "Ġsimplistic": 8205,
      "Ġpopulation": 8206,
      "Ġarrogant": 8207,
      "Ġmanhattan": 8208,
      "Ġderek": 8209,
      "Ġconvoluted": 8210,
      "fin": 8211,
      "free": 8212,
      "iver": 8213,
      "make": 8214,
      "Ġlun": 8215,
      "emark": 8216,
      "plo": 8217,
      "Ġquinn": 8218,
      "Ġgenres": 8219,
      "Ġapolog": 8220,
      "Ġacclaim": 8221,
      "Ġparad": 8222,
      "Ġraj": 8223,
      "Ġdamme": 8224,
      "Ġruins": 8225,
      "Ġcrystal": 8226,
      "Ġmodels": 8227,
      "Ġreaches": 8228,
      "Ġagreed": 8229,
      "Ġjaco": 8230,
      "Ġblatant": 8231,
      "Ġprincipal": 8232,
      "Ġenormous": 8233,
      "Ġacknow": 8234,
      "best": 8235,
      "talk": 8236,
      "vity": 8237,
      "Ġcd": 8238,
      "isy": 8239,
      "Ġnap": 8240,
      "Ġelli": 8241,
      "icity": 8242,
      "leading": 8243,
      "Ġjord": 8244,
      "Ġlips": 8245,
      "Ġmafia": 8246,
      "Ġbett": 8247,
      "awful": 8248,
      "Ġclassical": 8249,
      "Ġexposed": 8250,
      "Ġhopeless": 8251,
      "Ġsatir": 8252,
      "Ġlimits": 8253,
      "Ġclothing": 8254,
      "Ġscarlett": 8255,
      "Ġdistracting": 8256,
      "thriller": 8257,
      "Ġinventive": 8258,
      "Ġsacrifice": 8259,
      "Ġrendition": 8260,
      "Ġillegal": 8261,
      "Ġlifestyle": 8262,
      "Ġian": 8263,
      "Ġum": 8264,
      "idel": 8265,
      "elve": 8266,
      "plete": 8267,
      "onson": 8268,
      "Ġhanded": 8269,
      "Ġdepressed": 8270,
      "Ġpasses": 8271,
      "Ġvegas": 8272,
      "Ġmontage": 8273,
      "function": 8274,
      "bow": 8275,
      "Ġath": 8276,
      "Ġlamp": 8277,
      "leg": 8278,
      "Ġnov": 8279,
      "Ġenemies": 8280,
      "Ġspaces": 8281,
      "Ġpartly": 8282,
      "Ġguitar": 8283,
      "eping": 8284,
      "Ġgiallo": 8285,
      "Ġmartha": 8286,
      "Ġmisunder": 8287,
      "Ġthoughtful": 8288,
      "aneously": 8289,
      "Ġimagined": 8290,
      "Ġfailing": 8291,
      "mares": 8292,
      "Ġequip": 8293,
      "Ġintroduces": 8294,
      "Ġpersu": 8295,
      "Ġsucceeded": 8296,
      "Ġdescribes": 8297,
      "Ġmountains": 8298,
      "Ġmiserable": 8299,
      "Ġunfolds": 8300,
      "Ġsolely": 8301,
      "Ġdivorce": 8302,
      "Ġpresumably": 8303,
      "Ġempire": 8304,
      "both": 8305,
      "dark": 8306,
      "wind": 8307,
      "Ġpic": 8308,
      "Ġnause": 8309,
      "Ġyu": 8310,
      "Ġnotion": 8311,
      "Ġconve": 8312,
      "ciating": 8313,
      "Ġturner": 8314,
      "Ġpsychopath": 8315,
      "loff": 8316,
      "Ġtrees": 8317,
      "Ġbuildings": 8318,
      "Ġinnovative": 8319,
      "Ġcatches": 8320,
      "Ġtrademark": 8321,
      "Ġcasual": 8322,
      "warming": 8323,
      "Ġdepicts": 8324,
      "Ġprimary": 8325,
      "Ġprovoking": 8326,
      "Ġchoreography": 8327,
      "Ġreunion": 8328,
      "Ġimmensely": 8329,
      "Ġsplendid": 8330,
      "Ġscarecrow": 8331,
      "bird": 8332,
      "fast": 8333,
      "Ġwig": 8334,
      "Ġrust": 8335,
      "Ġkay": 8336,
      "Ġloads": 8337,
      "Ġphant": 8338,
      "Ġglover": 8339,
      "Ġrobb": 8340,
      "Ġmenace": 8341,
      "Ġhomeless": 8342,
      "????": 8343,
      "donald": 8344,
      "Ġwitnessed": 8345,
      "Ġdefend": 8346,
      "Ġconsistently": 8347,
      "Ġscheme": 8348,
      "Ġpsychiatrist": 8349,
      "Ġyesterday": 8350,
      "despite": 8351,
      "uable": 8352,
      "Ġmudd": 8353,
      "Ġgand": 8354,
      "otte": 8355,
      "Ġlip": 8356,
      "Ġscot": 8357,
      "Ġdoct": 8358,
      "Ġexhib": 8359,
      "Ġunsett": 8360,
      "Ġawa": 8361,
      "Ġsettle": 8362,
      "Ġobt": 8363,
      "Ġcopies": 8364,
      "Ġcountryside": 8365,
      "Ġhonesty": 8366,
      "Ġeducation": 8367,
      "Ġcurtis": 8368,
      "\"!": 8369,
      "ae": 8370,
      "ded": 8371,
      "jim": 8372,
      "pat": 8373,
      "sin": 8374,
      "van": 8375,
      "Ġcag": 8376,
      "verted": 8377,
      "Ġrail": 8378,
      "Ġalert": 8379,
      "Ġouts": 8380,
      "Ġmyers": 8381,
      "Ġsheen": 8382,
      "Ġimpe": 8383,
      "Ġadoles": 8384,
      "Ġfac": 8385,
      "ogical": 8386,
      "Ġcox": 8387,
      "Ġflies": 8388,
      "Ġgib": 8389,
      "Ġeva": 8390,
      "Ġcomparing": 8391,
      "Ġglo": 8392,
      "Ġexcru": 8393,
      "Ġpattern": 8394,
      "eryl": 8395,
      "ovich": 8396,
      "Ġamounts": 8397,
      "Ġterrorists": 8398,
      "Ġunintentional": 8399,
      "Ġpurchase": 8400,
      "Ġdozens": 8401,
      "Ġundoubtedly": 8402,
      "ih": 8403,
      "mus": 8404,
      "Ġ=": 8405,
      "Ġtame": 8406,
      "Ġtires": 8407,
      "erk": 8408,
      "Ġdys": 8409,
      "Ġreel": 8410,
      "Ġrita": 8411,
      "Ġforty": 8412,
      "Ġalfred": 8413,
      "Ġprops": 8414,
      "Ġpoll": 8415,
      "Ġblur": 8416,
      "Ġrelent": 8417,
      "aware": 8418,
      "Ġconsistent": 8419,
      "ggy": 8420,
      "Ġsmaller": 8421,
      "Ġdespair": 8422,
      "Ġhamilton": 8423,
      "Ġexplored": 8424,
      "Ġcrucial": 8425,
      "Ġcandid": 8426,
      "Ġstyles": 8427,
      "Ġalternative": 8428,
      "Ġdynamic": 8429,
      "Ġbourne": 8430,
      "Ġadequate": 8431,
      "Ġwannabe": 8432,
      "Ġequipment": 8433,
      "uge": 8434,
      "Ġtang": 8435,
      "Ġsill": 8436,
      "Ġbul": 8437,
      "Ġfay": 8438,
      "Ġfalk": 8439,
      "Ġcad": 8440,
      "isand": 8441,
      "Ġears": 8442,
      "Ġshine": 8443,
      "Ġlibert": 8444,
      "estic": 8445,
      "Ġuneven": 8446,
      "Ġcoherent": 8447,
      "Ġworkers": 8448,
      "Ġserge": 8449,
      "Ġterry": 8450,
      "shi": 8451,
      "Ġbarg": 8452,
      "Ġconstructed": 8453,
      "Ġrooms": 8454,
      "Ġhamlet": 8455,
      "Ġteaching": 8456,
      "Ġsatisfied": 8457,
      "ulsive": 8458,
      "Ġmaintain": 8459,
      "Ġaccompanied": 8460,
      "Ġstellar": 8461,
      "Ġdentist": 8462,
      "wes": 8463,
      "Ġtan": 8464,
      "Ġboun": 8465,
      "Ġbuster": 8466,
      "Ġmason": 8467,
      "Ġrit": 8468,
      "ulate": 8469,
      "Ġmacy": 8470,
      "cience": 8471,
      "Ġuser": 8472,
      "Ġgrotes": 8473,
      "Ġhorrifying": 8474,
      "Ġforms": 8475,
      "Ġillness": 8476,
      "Ġfocusing": 8477,
      "Ġutil": 8478,
      "Ġfooled": 8479,
      "Ġbottle": 8480,
      "Ġwrapped": 8481,
      "Ġfinancial": 8482,
      "david": 8483,
      "Ġjunior": 8484,
      "Ġastron": 8485,
      "Ġexcruciating": 8486,
      "lord": 8487,
      "pres": 8488,
      "saw": 8489,
      "Ġaven": 8490,
      "Ġwore": 8491,
      "Ġhates": 8492,
      "Ġwhis": 8493,
      "Ġrene": 8494,
      "Ġjar": 8495,
      "Ġscores": 8496,
      "Ġexotic": 8497,
      "umm": 8498,
      "pled": 8499,
      "Ġfunction": 8500,
      "Ġmuslim": 8501,
      "Ġcheating": 8502,
      "Ġtribe": 8503,
      "Ġnorris": 8504,
      "lands": 8505,
      "Ġdefeat": 8506,
      "Ġdutch": 8507,
      "Ġtonight": 8508,
      "Ġhelicopter": 8509,
      "bill": 8510,
      "aron": 8511,
      "Ġrein": 8512,
      "arts": 8513,
      "Ġjustify": 8514,
      "Ġunoriginal": 8515,
      "Ġtroma": 8516,
      "Ġflag": 8517,
      "Ġmayor": 8518,
      "Ġkeith": 8519,
      "Ġtrained": 8520,
      "Ġmonolog": 8521,
      "Ġ35": 8522,
      "Ġnightmares": 8523,
      "Ġsimilarities": 8524,
      "Ġcircle": 8525,
      "bbed": 8526,
      "Ġurge": 8527,
      "Ġkicked": 8528,
      "Ġagrees": 8529,
      "Ġmargaret": 8530,
      "Ġcagney": 8531,
      "bby": 8532,
      "isons": 8533,
      "anch": 8534,
      "Ġrebell": 8535,
      "Ġstall": 8536,
      "Ġpeop": 8537,
      "ensions": 8538,
      "izations": 8539,
      "Ġsteel": 8540,
      "Ġconsiderable": 8541,
      "Ġadvise": 8542,
      "Ġprompt": 8543,
      "Ġconvincingly": 8544,
      "Ġgangsters": 8545,
      "Ġblew": 8546,
      "Ġpractice": 8547,
      "Ġresponsibility": 8548,
      "Ġnervous": 8549,
      "Ġcompanion": 8550,
      "Ġemphasis": 8551,
      "Ġalbum": 8552,
      "Ġmiyaz": 8553,
      "mit": 8554,
      "oz": 8555,
      "say": 8556,
      "Ġfist": 8557,
      "Ġfog": 8558,
      "Ġinane": 8559,
      "Ġsung": 8560,
      "Ġvice": 8561,
      "Ġamy": 8562,
      "Ġendings": 8563,
      "ints": 8564,
      "Ġrecon": 8565,
      "Ġkeen": 8566,
      "Ġcontrib": 8567,
      "Ġcomposed": 8568,
      "Ġversus": 8569,
      "claim": 8570,
      "Ġtrailers": 8571,
      "Ġstevens": 8572,
      "Ġwidow": 8573,
      "Ġvulgar": 8574,
      "Ġshelf": 8575,
      "Ġflorida": 8576,
      "Ġwebsite": 8577,
      ",,": 8578,
      "fan": 8579,
      "funny": 8580,
      "Ġape": 8581,
      "Ġsway": 8582,
      "Ġdating": 8583,
      "alie": 8584,
      "Ġstabb": 8585,
      "Ġrising": 8586,
      "atched": 8587,
      "Ġintim": 8588,
      "Ġamuse": 8589,
      "Ġaggress": 8590,
      "ressive": 8591,
      "Ġmarion": 8592,
      "Ġsubplots": 8593,
      "Ġgraham": 8594,
      "ahl": 8595,
      "shine": 8596,
      "Ġuseful": 8597,
      "Ġmasterful": 8598,
      "Ġtransp": 8599,
      "Ġvalent": 8600,
      "Ġgarbo": 8601,
      "Ġpotentially": 8602,
      "Ġsurvived": 8603,
      "Ġlegal": 8604,
      "Ġresemblance": 8605,
      "Ġeaten": 8606,
      "Ġsurvivors": 8607,
      "Ġsullivan": 8608,
      "Ġcassavetes": 8609,
      "90": 8610,
      "fam": 8611,
      "nothing": 8612,
      "Ġhick": 8613,
      "orthy": 8614,
      "Ġpushing": 8615,
      "iceless": 8616,
      "Ġstress": 8617,
      "Ġshake": 8618,
      "Ġsuited": 8619,
      "unning": 8620,
      "Ġplausible": 8621,
      "andra": 8622,
      "Ġjustin": 8623,
      "resp": 8624,
      "Ġmankind": 8625,
      "Ġinterrupt": 8626,
      "never": 8627,
      "Ġcrush": 8628,
      "Ġdownhill": 8629,
      "Ġenjoys": 8630,
      "Ġpainted": 8631,
      "Ġmentioning": 8632,
      "Ġfutur": 8633,
      "ivalent": 8634,
      "Ġexploit": 8635,
      "Ġrecording": 8636,
      "Ġpassionate": 8637,
      "Ġadams": 8638,
      "Ġbonus": 8639,
      "Ġhideous": 8640,
      "Ġwealth": 8641,
      "Ġnostalgia": 8642,
      "Ġtransformation": 8643,
      "Ġseventies": 8644,
      "Ġglobal": 8645,
      "Ġfier": 8646,
      "Ġnas": 8647,
      "Ġrocket": 8648,
      "Ġdisplayed": 8649,
      "Ġflood": 8650,
      "izable": 8651,
      "Ġsurpass": 8652,
      "Ġsubl": 8653,
      "Ġelvis": 8654,
      "Ġabsent": 8655,
      "Ġcreativity": 8656,
      "Ġstreisand": 8657,
      "guy": 8658,
      "Ġdavies": 8659,
      "club": 8660,
      "Ġcampa": 8661,
      "Ġ*****": 8662,
      "Ġpunishment": 8663,
      "Ġoptim": 8664,
      "Ġdinosaur": 8665,
      "Ġfrancisco": 8666,
      "Ġnicholson": 8667,
      "Ġabysmal": 8668,
      "(..": 8669,
      "really": 8670,
      "Ġmtv": 8671,
      "Ġhouses": 8672,
      "illian": 8673,
      "Ġalter": 8674,
      "aux": 8675,
      "Ġtends": 8676,
      "Ġoverrated": 8677,
      "Ġcharacteristic": 8678,
      "Ġholl": 8679,
      "Ġcarrie": 8680,
      "Ġcheated": 8681,
      "Ġedition": 8682,
      "Ġmonot": 8683,
      "Ġsuperhero": 8684,
      "Ġchronic": 8685,
      "Ġlackl": 8686,
      "Ġdeveloping": 8687,
      "Ġairplane": 8688,
      "Ġtroubles": 8689,
      "Ġarrived": 8690,
      "evil": 8691,
      "Ġhench": 8692,
      "Ġtemper": 8693,
      "Ġoverwhelming": 8694,
      "Ġdeliberately": 8695,
      "Ġshirley": 8696,
      "Ġgadget": 8697,
      "jay": 8698,
      "oster": 8699,
      "Ġtaught": 8700,
      "Ġsau": 8701,
      "esc": 8702,
      "Ġlap": 8703,
      "Ġecho": 8704,
      "stage": 8705,
      "Ġkap": 8706,
      "antis": 8707,
      "Ġorph": 8708,
      "igner": 8709,
      "beth": 8710,
      "berl": 8711,
      "Ġcontained": 8712,
      "ivals": 8713,
      "Ġhelpless": 8714,
      "Ġstaring": 8715,
      "Ġdistingu": 8716,
      "Ġhilariously": 8717,
      "Ġcliche": 8718,
      "Ġprotest": 8719,
      "Ġbrutally": 8720,
      "Ġchicken": 8721,
      "Ġrevolutionary": 8722,
      "Ġglasses": 8723,
      "Ġpuppets": 8724,
      "Ġphilosophical": 8725,
      "Ġrotten": 8726,
      "Ġcitizens": 8727,
      "Ġjournalist": 8728,
      "Ġexchange": 8729,
      ")...": 8730,
      "iant": 8731,
      "Ġties": 8732,
      "Ġak": 8733,
      "Ġsits": 8734,
      "Ġbite": 8735,
      "Ġcuster": 8736,
      "asing": 8737,
      "Ġvic": 8738,
      "Ġpoetic": 8739,
      "Ġbette": 8740,
      "Ġadul": 8741,
      "Ġadorable": 8742,
      "Ġblowing": 8743,
      "Ġwrites": 8744,
      "Ġclasses": 8745,
      "Ġpacif": 8746,
      "Ġcloset": 8747,
      "ission": 8748,
      "Ġcinematographer": 8749,
      "Ġprize": 8750,
      "Ġtreats": 8751,
      "Ġhistorically": 8752,
      "Ġunsatisf": 8753,
      "Ġdrops": 8754,
      "Ġdisappeared": 8755,
      "Ġrobinson": 8756,
      "Ġguests": 8757,
      "Ġadvertising": 8758,
      "faced": 8759,
      "lam": 8760,
      "little": 8761,
      "yet": 8762,
      "Ġwiz": 8763,
      "oured": 8764,
      "Ġps": 8765,
      "Ġple": 8766,
      "Ġstilted": 8767,
      "Ġanch": 8768,
      "Ġfever": 8769,
      "agn": 8770,
      "again": 8771,
      "Ġarmed": 8772,
      "Ġbronson": 8773,
      "aped": 8774,
      "Ġdirects": 8775,
      "Ġparties": 8776,
      "Ġunderlying": 8777,
      "Ġcouples": 8778,
      "Ġedgar": 8779,
      "Ġdefense": 8780,
      "Ġportion": 8781,
      "Ġbarney": 8782,
      "Ġbrazil": 8783,
      "Ġguessed": 8784,
      "Ġgarfield": 8785,
      "yeah": 8786,
      "Ġchannels": 8787,
      "Ġdrawing": 8788,
      "probably": 8789,
      "Ġunderstated": 8790,
      "Ġprogresses": 8791,
      "Ġnicole": 8792,
      "Ġpretending": 8793,
      "Ġriveting": 8794,
      "len": 8795,
      "your": 8796,
      "Ġsno": 8797,
      "Ġmast": 8798,
      "Ġhan": 8799,
      "Ġdaw": 8800,
      "Ġlor": 8801,
      "Ġease": 8802,
      "Ġrang": 8803,
      "ulf": 8804,
      "antee": 8805,
      "Ġholy": 8806,
      "Ġelimin": 8807,
      "Ġdramat": 8808,
      "Ġearned": 8809,
      "makers": 8810,
      "Ġsolution": 8811,
      "Ġconvent": 8812,
      "Ġsquare": 8813,
      "ropriately": 8814,
      "Ġformulaic": 8815,
      "Ġbridges": 8816,
      "Ġvengeance": 8817,
      "Ġmiyazaki": 8818,
      "40": 8819,
      "bors": 8820,
      "name": 8821,
      "Ġniro": 8822,
      "alyp": 8823,
      "ooby": 8824,
      "Ġchased": 8825,
      "urance": 8826,
      "Ġsopr": 8827,
      "Ġpearl": 8828,
      "Ġponder": 8829,
      "Ġtwelve": 8830,
      "Ġyelling": 8831,
      "Ġrunner": 8832,
      "ographed": 8833,
      "Ġreflection": 8834,
      "Ġparam": 8835,
      "Ġalongside": 8836,
      "owski": 8837,
      "Ġwished": 8838,
      "Ġillogical": 8839,
      "Ġ2004": 8840,
      "Ġmistress": 8841,
      "Ġmatches": 8842,
      "Ġsuitable": 8843,
      "Ġwounded": 8844,
      "Ġcitizen": 8845,
      "Ġirrelevant": 8846,
      "Ġlemmon": 8847,
      "Ġingredients": 8848,
      "Ġeastern": 8849,
      "alypse": 8850,
      "eu": 8851,
      "gie": 8852,
      "james": 8853,
      "sons": 8854,
      "vial": 8855,
      "Ġbent": 8856,
      "oral": 8857,
      "Ġpony": 8858,
      "aman": 8859,
      "Ġsust": 8860,
      "ela": 8861,
      "Ġfeast": 8862,
      "Ġperry": 8863,
      "Ġdesired": 8864,
      "acious": 8865,
      "ivable": 8866,
      "Ġschlock": 8867,
      "Ġpops": 8868,
      "Ġpromises": 8869,
      "193": 8870,
      "Ġsuggested": 8871,
      "Ġdolls": 8872,
      "Ġtrashy": 8873,
      "Ġproceeds": 8874,
      "Ġcorruption": 8875,
      "Ġbaldwin": 8876,
      "Ġborrowed": 8877,
      "aving": 8878,
      "city": 8879,
      "rates": 8880,
      "Ġhut": 8881,
      "Ġfought": 8882,
      "Ġfaster": 8883,
      "Ġcens": 8884,
      "Ġgyp": 8885,
      "Ġbean": 8886,
      "Ġwhim": 8887,
      "Ġko": 8888,
      "Ġdee": 8889,
      "eland": 8890,
      "andon": 8891,
      "Ġseeks": 8892,
      "Ġendure": 8893,
      "Ġflop": 8894,
      "Ġrecyc": 8895,
      "acies": 8896,
      "Ġattitudes": 8897,
      "Ġapes": 8898,
      "Ġcheek": 8899,
      "Ġglim": 8900,
      "Ġtyler": 8901,
      "Ġengross": 8902,
      "onto": 8903,
      "Ġswall": 8904,
      "Ġpatients": 8905,
      "Ġgarner": 8906,
      "Ġphoto": 8907,
      "Ġcombine": 8908,
      "Ġhyper": 8909,
      "Ġconditions": 8910,
      "Ġcoward": 8911,
      "Ġkarloff": 8912,
      "Ġsafety": 8913,
      "99": 8914,
      "bid": 8915,
      "dem": 8916,
      "gio": 8917,
      "mun": 8918,
      "west": 8919,
      "orrow": 8920,
      "Ġtopless": 8921,
      "omet": 8922,
      "Ġnem": 8923,
      "Ġmoody": 8924,
      "Ġreck": 8925,
      "ceived": 8926,
      "umin": 8927,
      "Ġintimate": 8928,
      "Ġpriceless": 8929,
      "Ġsimult": 8930,
      "Ġcarrad": 8931,
      "Ġlaughably": 8932,
      "Ġcraven": 8933,
      "Ġhuh": 8934,
      "Ġinferior": 8935,
      "Ġsleaze": 8936,
      "Ġdestiny": 8937,
      "Ġspacey": 8938,
      "headed": 8939,
      "Ġbullock": 8940,
      "Ġembarrassment": 8941,
      "Ġcontrad": 8942,
      "prof": 8943,
      "Ġstinks": 8944,
      "Ġcrawford": 8945,
      "Ġguarantee": 8946,
      "Ġhuston": 8947,
      "Ġresurrect": 8948,
      "Ġunsettling": 8949,
      "Ġgrotesque": 8950,
      "might": 8951,
      "ni": 8952,
      "Ġtact": 8953,
      "Ġdirt": 8954,
      "Ġbutler": 8955,
      "rier": 8956,
      "ousing": 8957,
      "Ġdivers": 8958,
      "Ġunit": 8959,
      "Ġmund": 8960,
      "Ġslave": 8961,
      "Ġtripe": 8962,
      "Ġrepublic": 8963,
      "Ġsenses": 8964,
      "strong": 8965,
      "Ġbedroom": 8966,
      "Ġrolled": 8967,
      "Ġremarkably": 8968,
      "Ġjews": 8969,
      "Ġbirds": 8970,
      "Ġnomination": 8971,
      "Ġrabbit": 8972,
      "Ġartificial": 8973,
      "predictable": 8974,
      "Ġcampaign": 8975,
      "-)": 8976,
      "bot": 8977,
      "hist": 8978,
      "Ġavo": 8979,
      "Ġauss": 8980,
      "Ġthugs": 8981,
      "ilight": 8982,
      "Ġjoined": 8983,
      "enson": 8984,
      "ionship": 8985,
      "Ġphrase": 8986,
      "Ġcommander": 8987,
      "Ġskate": 8988,
      "Ġskull": 8989,
      "Ġcorman": 8990,
      "lost": 8991,
      "Ġtechnic": 8992,
      "Ġspirits": 8993,
      "Ġmcg": 8994,
      "Ġimmort": 8995,
      "Ġfrustration": 8996,
      "Ġwatson": 8997,
      "Ġhints": 8998,
      "Ġmotivations": 8999,
      "Ġfrequent": 9000,
      "Ġconceived": 9001,
      "Ġmarketing": 9002,
      "Ġincompetent": 9003,
      "Ġsupreme": 9004,
      "Ġaugust": 9005,
      "Ġcarradine": 9006,
      "hr": 9007,
      "ju": 9008,
      "person": 9009,
      "inity": 9010,
      "Ġdall": 9011,
      "Ġlately": 9012,
      "ases": 9013,
      "secut": 9014,
      "Ġassem": 9015,
      "uri": 9016,
      "ripp": 9017,
      "ulated": 9018,
      "Ġplod": 9019,
      "Ġshowcase": 9020,
      "Ġpee": 9021,
      "Ġspain": 9022,
      "Ġcoh": 9023,
      "Ġawake": 9024,
      "ysis": 9025,
      "Ġcapturing": 9026,
      "Ġpatric": 9027,
      "Ġweakest": 9028,
      "attered": 9029,
      "Ġcleverly": 9030,
      "Ġcircus": 9031,
      "front": 9032,
      "Ġcondem": 9033,
      "Ġchallenging": 9034,
      "Ġiraq": 9035,
      "Ġelegant": 9036,
      "Ġinappropriate": 9037,
      "Ġritual": 9038,
      "Ġpeoples": 9039,
      "Ġavoided": 9040,
      "bod": 9041,
      "kill": 9042,
      "last": 9043,
      "riel": 9044,
      "Ġ{": 9045,
      "Ġwides": 9046,
      "Ġcg": 9047,
      "Ġcake": 9048,
      "Ġyawn": 9049,
      "Ġrude": 9050,
      "people": 9051,
      "Ġscope": 9052,
      "essa": 9053,
      "abs": 9054,
      "Ġneur": 9055,
      "agues": 9056,
      "Ġfacing": 9057,
      "Ġafgh": 9058,
      "Ġsappy": 9059,
      "weet": 9060,
      "Ġgrudge": 9061,
      "Ġremained": 9062,
      "note": 9063,
      "Ġbehave": 9064,
      "Ġharvey": 9065,
      "engers": 9066,
      "ompson": 9067,
      "Ġbackgrounds": 9068,
      "Ġcommunist": 9069,
      "bbie": 9070,
      "Ġfloating": 9071,
      "Ġfoolish": 9072,
      "Ġkarate": 9073,
      "Ġdimensional": 9074,
      "mission": 9075,
      "Ġensues": 9076,
      "Ġglorious": 9077,
      "Ġfelix": 9078,
      "Ġprejudice": 9079,
      "Ġbehaviour": 9080,
      "hall": 9081,
      "Ġ_": 9082,
      "Ġbanned": 9083,
      "encies": 9084,
      "llie": 9085,
      "Ġsoci": 9086,
      "Ġscre": 9087,
      "Ġexquis": 9088,
      "astically": 9089,
      "Ġenchant": 9090,
      "Ġamid": 9091,
      "Ġtwins": 9092,
      "moon": 9093,
      "Ġnewly": 9094,
      "Ġobli": 9095,
      "Ġcompens": 9096,
      "Ġwarren": 9097,
      "Ġcareful": 9098,
      "Ġsyl": 9099,
      "Ġunderstandable": 9100,
      "Ġpossibilities": 9101,
      "Ġlowest": 9102,
      "Ġdoug": 9103,
      "maker": 9104,
      "Ġpublish": 9105,
      "ocaust": 9106,
      "Ġclosest": 9107,
      "Ġcontempl": 9108,
      "Ġwarmth": 9109,
      "Ġenterprise": 9110,
      "charact": 9111,
      "Ġbeliefs": 9112,
      "Ġhypnot": 9113,
      "Ġcomposer": 9114,
      "Ġpitiful": 9115,
      "Ġignorant": 9116,
      "Ġincorpor": 9117,
      "ploitation": 9118,
      "bone": 9119,
      "buck": 9120,
      "try": 9121,
      "Ġthompson": 9122,
      "anne": 9123,
      "idy": 9124,
      "Ġtravest": 9125,
      "Ġedit": 9126,
      "xties": 9127,
      "Ġboris": 9128,
      "Ġtransition": 9129,
      "Ġdamned": 9130,
      "Ġpurposes": 9131,
      "Ġdesperation": 9132,
      "Ġlegit": 9133,
      "Ġlatin": 9134,
      "Ġjeffrey": 9135,
      "Ġbuffs": 9136,
      "Ġswimming": 9137,
      "imagin": 9138,
      "Ġoutfit": 9139,
      "fly": 9140,
      "iors": 9141,
      "Ġtiger": 9142,
      "icism": 9143,
      "Ġrul": 9144,
      "Ġrag": 9145,
      "urai": 9146,
      "ession": 9147,
      "Ġ---": 9148,
      "Ġgrass": 9149,
      "Ġrelation": 9150,
      "Ġgloss": 9151,
      "Ġcream": 9152,
      "Ġwaited": 9153,
      "Ġidol": 9154,
      "Ġpopularity": 9155,
      "provo": 9156,
      "Ġdimension": 9157,
      "special": 9158,
      "Ġnostalgic": 9159,
      "tte": 9160,
      "zzy": 9161,
      "Ġawhile": 9162,
      "Ġaesth": 9163,
      "arthur": 9164,
      "Ġisab": 9165,
      "ala": 9166,
      "aled": 9167,
      "utter": 9168,
      "sect": 9169,
      "Ġshod": 9170,
      "Ġchip": 9171,
      "Ġsore": 9172,
      "Ġmah": 9173,
      "Ġproph": 9174,
      "Ġcancer": 9175,
      "Ġgreatness": 9176,
      "Ġspoke": 9177,
      "Ġnewman": 9178,
[...]
